{
  "Ã©v": 37006,
  "acoa": 45596,
  "Referencias": 3455,
  "ĠNg": 47768,
  "Ġentreten": 10907,
  "ĠStep": 21984,
  "hee": 29455,
  "jaron": 11589,
  "Ġim": 10336,
  "log": 16423,
  "ĠbrotÃ³": 36254,
  "Ġhierbas": 16282,
  "Ġenojado": 33176,
  "ĠNeg": 14520,
  "aray": 45272,
  "itadas": 13161,
  "Ġreencar": 37782,
  "Ġtiburones": 36477,
  "Ġconchas": 36086,
  "Ġprecar": 40797,
  "Ġcombatiendo": 41397,
  "Ġyi": 45297,
  "trodu": 3042,
  "Ġsoportarlo": 33227,
  "ĠVolvo": 49523,
  "vias": 9929,
  "Ġcelebra": 10814,
  "ull": 3341,
  "Ġhacerlos": 38403,
  "Ġdescendiente": 20896,
  "Ġbuceo": 48561,
  "ĠestÃº": 8149,
  "ĠmodificaciÃ³n": 21429,
  "Ġ294": 41585,
  "ĠespecializÃ³": 40905,
  "ĠBishop": 39256,
  "Ġ-": 1368,
  "ĠProtocolo": 45065,
  "Ġhouse": 43052,
  "ĠTestamento": 22112,
  "ĠFace": 38342,
  "ĠRusso": 45931,
  "Ġprefecto": 32100,
  "Ġlienzos": 33556,
  "riendo": 2626,
  "Ġbordado": 34573,
  "ĠMat": 2949,
  "ĠCao": 45740,
  "Ġobtu": 35529,
  "Ġlatir": 33850,
  "Ġsuces": 3994,
  "Ġmiles": 7092,
  "ansen": 25024,
  "ĠComplete": 48219,
  "ĠocurrirÃŃa": 28630,
  "Ġleuco": 48617,
  "ĠJerez": 21053,
  "Ital": 18567,
  "quera": 12527,
  "grima": 14702,
  "Ġgeorgiano": 47456,
  "HabrÃ¡": 38293,
  "Ġapropiado": 18395,
  "Ġadaptarse": 27562,
  "ex": 1520,
  "Ġterciopelo": 20324,
  "ĠSalz": 26165,
  "nip": 35503,
  "120": 24363,
  "mosis": 26485,
  "Del": 11941,
  "ĠhÃ¡b": 10187,
  "Ġimpreso": 26013,
  "Ġsemici": 38826,
  "Ġfemeninas": 12113,
  "Ġunder": 32848,
  "Ġpoblacional": 7313,
  "legro": 42919,
  "ezas": 5651,
  "ĠPu": 5214,
  "Ġrenal": 38591,
  "ror": 2359,
  "ĠKaza": 25616,
  "Ġprestando": 42364,
  "ĠHarry": 8521,
  "Ġ1620": 47856,
  "Ġatacaron": 22538,
  "ĠcuraciÃ³n": 30801,
  "Ġintenta": 9143,
  "Ġbien": 874,
  "midt": 24635,
  "emin": 8926,
  "Ġexpul": 49019,
  "Ġpros": 4751,
  "Ġpesca": 12999,
  "cuando": 21891,
  "Ġcuader": 14365,
  "Ġpobladas": 38514,
  "cadores": 10508,
  "ĠenfermerÃŃa": 31398,
  "ĠPlan": 5029,
  "ĠCali": 11552,
  "ĠfrustraciÃ³n": 21046,
  "Aust": 21362,
  "Ġvaina": 37292,
  "Ġrego": 21215,
  "ĠTamil": 49883,
  "Ġimpre": 10947,
  "ĠOlin": 46500,
  "ĠteÃ³ricamente": 49763,
  "ĠAngelo": 21947,
  "Ġobservo": 46315,
  "Ġsingle": 19681,
  "Ġhumanos": 4276,
  "ling": 4619,
  "ĠNA": 31399,
  "Ġescoba": 37845,
  "Ġcolo": 2704,
  "Ġrodear": 38197,
  "Ran": 26989,
  "logÃŃa": 4955,
  "ĠRegion": 45698,
  "ĠpasÃ³": 2567,
  "Ġadap": 4578,
  "ĠPitt": 43609,
  "aga": 12808,
  "ĠJavier": 6655,
  "Ġnoti": 3458,
  "Ġlanzarse": 27448,
  "ĠHudson": 20503,
  "Ġbellos": 29880,
  "Ġide": 1479,
  "enzÃ³": 9704,
  "ĠSumatra": 46505,
  "Ġmonstruosa": 44838,
  "tanos": 17693,
  "ĠraÃŃz": 8800,
  "Ġlarg": 14820,
  "MV": 36478,
  "udis": 40457,
  "Ġmasac": 30615,
  "ĠDioses": 46059,
  "Ġcorreas": 40502,
  "gio": 4024,
  "ĠApocalipsis": 38088,
  "ĠWhy": 45629,
  "Ġyardas": 33557,
  "Ġjurado": 11393,
  "ferencia": 3941,
  "ĠWinter": 20659,
  "ĠCarranza": 29924,
  "Ġarmenio": 35864,
  "ĠMariscal": 27767,
  "Ġtestimonios": 22404,
  "ĠBryan": 22397,
  "Ġalam": 44013,
  "Q": 58,
  "iemp": 625,
  "ĠestrÃ©s": 24750,
  "Sergio": 35831,
  "ĠState": 11842,
  "Ġ1878": 19199,
  "ĠThreatened": 38682,
  "ĠKell": 46312,
  "Ġdesconec": 26624,
  "Ġprofundizar": 41760,
  "ficaciones": 9081,
  "ĠIsidoro": 32784,
  "1888": 42684,
  "bath": 47675,
  "Ġobligando": 34837,
  "erbaiy": 17141,
  "loss": 28830,
  "ĠenergÃŃas": 22798,
  "Ġparadas": 28438,
  "Ġjugadores": 5678,
  "Zaragoza": 44097,
  "Ġracismo": 37667,
  "Ġitalianos": 12509,
  "Ġinmun": 31761,
  "ĠComb": 18391,
  "wall": 26409,
  "dence": 21337,
  "Ġcuotas": 47450,
  "Ġpedago": 33005,
  "ĠCÃ¡ceres": 16895,
  "ĠArteaga": 47565,
  "He": 4801,
  "Ġempinada": 47869,
  "ological": 21072,
  "Ġtutor": 29090,
  "Ġ1948": 7914,
  "alus": 33720,
  "ĠQuesada": 33680,
  "Ġsap": 38171,
  "ĠMaracaibo": 27867,
  "Ġmereces": 43442,
  "oling": 44464,
  "steres": 44929,
  "ĠBenjamin": 19311,
  "ĠpÃ©talos": 22564,
  "Ġsuena": 14194,
  "Ġexcre": 28905,
  "Ġ93": 11650,
  "ducto": 23663,
  "Paul": 15346,
  "ĠStanley": 19265,
  "ĠSÃ³": 45518,
  "uticos": 33112,
  "ĠGul": 32379,
  "Ġnavaja": 24832,
  "Ġcompases": 45730,
  "upe": 41971,
  "ĠLas": 1031,
  "vincia": 19683,
  "Ġreiter": 23898,
  "ĠSeguro": 14546,
  "ĠGand": 29413,
  "Ġinmortales": 35072,
  "Ġobo": 41477,
  "Ġodia": 31797,
  "ĠPedag": 47201,
  "Ġperdidas": 26728,
  "Ġrecurre": 47397,
  "ĠdÃ©j": 17069,
  "UNA": 44877,
  "Ġcontroles": 20724,
  "lecto": 18936,
  "ĠdesolaciÃ³n": 38489,
  "Ġuse": 41573,
  "ĠParana": 45255,
  "Ġconfirmada": 36256,
  "Ġdistingu": 5179,
  "Ġ;": 3079,
  "ĠreportÃ³": 37959,
  "eles": 6752,
  "Ġahorros": 34352,
  "ĠcrÃŃtica": 6071,
  "ĠregistrÃ³": 20797,
  "Ġfundador": 8257,
  "Ġmuriera": 31910,
  "ĠFour": 20888,
  "ÑĢ": 7166,
  "ĠPokÃ©mon": 42834,
  "Ġsecretarios": 50057,
  "ĠBiobÃŃo": 48901,
  "Ġpalacio": 5388,
  "Ġinjust": 15540,
  "Ġbif": 28688,
  "Ġpreguntarse": 27261,
  "etÃ³n": 43164,
  "ĠJim": 4679,
  "ĠMrs": 18718,
  "ĠAragua": 34118,
  "Ġprocedente": 12748,
  "ĠYa": 2298,
  "GC": 17550,
  "ĠCommunity": 39472,
  "damos": 34024,
  "ĠCur": 7570,
  "Ġminas": 13197,
  "Ġequipos": 3327,
  "franca": 36338,
  "ĠHave": 36795,
  "Ġna": 716,
  "Ġcadenas": 13038,
  "Ġtranspor": 7736,
  "Ġdanzas": 30367,
  "ĠpÃ¡lidas": 44073,
  "change": 44690,
  "curre": 37606,
  "ĠAntonieta": 42716,
  "lan": 590,
  "Ġ---": 13412,
  "ĠEstudios": 8474,
  "ĠWald": 39065,
  "ĠÃ©pica": 37588,
  "Ġpresentaron": 15845,
  "giles": 47533,
  "uÃ©": 38665,
  "izado": 4601,
  "Ġpilla": 48076,
  "Dar": 25819,
  "ĠâĢĶÂ¡": 13906,
  "Ġtante": 28328,
  "ĠÃ³blast": 26325,
  "Ġceniza": 21886,
  "Ġdones": 38138,
  "Ġpare": 2852,
  "ĠTay": 9306,
  "Ġseguramente": 8982,
  "QL": 42841,
  "Ġsingles": 35745,
  "ĠHamburgo": 16856,
  "Ġgranadas": 31022,
  "ĠsÃ³tano": 15105,
  "Ġ1983": 4882,
  "Ġord": 34000,
  "Ġtradu": 3869,
  "Ġdotada": 40075,
  "Ġarch": 8385,
  "Ġhomosexualidad": 27346,
  "emÃŃas": 48278,
  "ĠbÃºnker": 43715,
  "Ġ1934": 9589,
  "150": 24339,
  "ĠVision": 49745,
  "avy": 16963,
  "tÃ¡ndolo": 33641,
  "Ġresentimiento": 27485,
  "Lim": 44572,
  "ĠLys": 45450,
  "Ġdia": 17390,
  "Ġmorte": 37094,
  "Ġjudicial": 12579,
  "Ġchanta": 29355,
  "Ġspi": 45909,
  "Ġcerca": 1861,
  "ĠKevin": 12464,
  "Trayectoria": 46926,
  "2001": 7127,
  "Ġdren": 42446,
  "Ġhe": 719,
  "yeon": 43265,
  "Ġmusul": 8283,
  "ĠDei": 32994,
  "Ġestra": 4731,
  "15": 1981,
  "Ġlateral": 10321,
  "Ġafroamericanos": 10746,
  "Ġllorique": 49769,
  "Ġconsiderada": 9216,
  "ĠCBS": 24386,
  "Ġguerrilleros": 30136,
  "ĠAllison": 33119,
  "ĠHuesca": 20950,
  "Ġcaracterizado": 26172,
  "re": 294,
  "enso": 1723,
  "Ġ#\"": 11803,
  "Ġalquiler": 19723,
  "ĠComÃºn": 33586,
  "ira": 1784,
  "Ġinva": 33363,
  "Phy": 41168,
  "Ġcomportarse": 29500,
  "Ġgobernada": 42623,
  "ĠToro": 16317,
  "atorios": 13071,
  "ĠStreet": 9085,
  "Ġcompostura": 32920,
  "Ġescenario": 6926,
  "Crees": 13376,
  "Ġpreso": 20368,
  "Ġpalme": 33422,
  "Ġlatinoamericano": 49473,
  "bado": 30953,
  "ÃŃodo": 17757,
  "ĠAbel": 17810,
  "Ġtintes": 48470,
  "riotas": 16769,
  "Ġamable": 9146,
  "Ã©isbol": 12562,
  "Ãºlti": 994,
  "ĠZ": 996,
  "Ġutilizados": 12842,
  "Ġcolind": 38204,
  "'m": 19360,
  "Ġresopl": 24185,
  "Ġcelebradas": 28866,
  "mitas": 22095,
  "Ġcopia": 12683,
  "thing": 20855,
  "Ġroda": 45144,
  "idan": 15227,
  "Ġalf": 7111,
  "Ġcitado": 14482,
  "ĠRut": 24172,
  "urio": 26787,
  "ĠCasÃ³": 30343,
  "Ġporque": 1050,
  "ĠNumer": 45921,
  "ĠTeherÃ¡n": 37063,
  "ĠÂºC": 48419,
  "Ġmarginales": 49757,
  "alizaron": 23405,
  "ĠPerio": 11644,
  "ĠSome": 38435,
  "Ġhipoc": 36411,
  "ska": 27014,
  "Ġgodos": 48508,
  "Ġapropiada": 28982,
  "Ġvers": 21740,
  "Ġasegu": 3103,
  "ĠNASA": 19600,
  "Ã¡rez": 7599,
  "taxis": 39847,
  "Ġvuestras": 18952,
  "Ġaparecen": 7829,
  "Ġviajan": 34183,
  "yu": 15570,
  "Ġ313": 35505,
  "house": 14818,
  "ĠChambers": 46819,
  "ĠtrÃŃo": 20952,
  "ĠmÃ¡ximos": 30905,
  "ĠCypriniformes": 48184,
  "ĠSouthern": 27581,
  "ĠHamilton": 16352,
  "ĠÊ": 47921,
  "arist": 18135,
  "ĠOscuro": 38309,
  "ĠCapito": 45765,
  "Ġlady": 16785,
  "Retrato": 32898,
  "ĠMarket": 32028,
  "ĠNiÃ±a": 46567,
  "ĠVio": 8423,
  "ruguay": 4589,
  "iev": 10507,
  "ĠPetit": 28962,
  "ĠÃļlti": 13385,
  "ĠCoch": 21120,
  "Ġinglesa": 8761,
  "anta": 5918,
  "Ġinstalarse": 29675,
  "ĠRichter": 29167,
  "Ġlabio": 13585,
  "ĠAZ": 43856,
  "Ġlumbre": 50252,
  "ares": 1833,
  "Ġver": 588,
  "Ġtapaba": 48015,
  "zas": 1413,
  "Ġbrom": 34768,
  "Mom": 44334,
  "ĠpromoviÃ³": 31959,
  "itarra": 13447,
  "ibre": 21282,
  "ĠMÃŃchigan": 20506,
  "ĠsimpÃ¡tica": 34582,
  "Ġargu": 5475,
  "ruguaya": 26190,
  "ĠCook": 19453,
  "Ġnas": 19666,
  "ĠCÃ³rdo": 41710,
  "ĠdÃŃgitos": 36134,
  "Ġ399": 45278,
  "ĠmonÃ³logo": 41786,
  "Ġtambores": 26954,
  "Ohio": 43619,
  "Ġwww": 34269,
  "Ġcatedral": 7981,
  "Ġ432": 46219,
  "ĠsÃºplica": 37825,
  "Ġsorprendidos": 30631,
  "ĠDanilo": 39752,
  "Ġpedirle": 14569,
  "ĠreunÃŃan": 32696,
  "Ġfallecer": 47432,
  "ĠRioja": 15166,
  "ĠPez": 37288,
  "Sophie": 38622,
  "ĠBo": 1642,
  "Ġsu": 325,
  "zones": 11493,
  "Ġdescendencia": 16884,
  "Ġcircundantes": 35271,
  "ĠMe": 784,
  "taciÃ³n": 1289,
  "Ġvenciendo": 35544,
  "ĠSU": 26311,
  "Ġo": 346,
  "dera": 1209,
  "ĠJoe": 8437,
  "ĠEslalon": 31793,
  "Ġreparar": 20676,
  "Ġajustar": 37259,
  "tard": 48243,
  "Ġagradecer": 21782,
  "ram": 4176,
  "cÃ©s": 2672,
  "ĠConstituyente": 25728,
  "Ġbron": 21833,
  "Ġpoll": 39325,
  "Esper": 13661,
  "ĠBurton": 28835,
  "Debes": 41044,
  "ĠpiÃ±a": 48044,
  "Ġobservar": 7859,
  "Ġasesinatos": 17205,
  "Ġsobr": 6075,
  "omayor": 40533,
  "Ġsurcos": 39825,
  "Ġhom": 4298,
  "caba": 2900,
  "Ġinno": 11333,
  "ĠRÃ¶": 43358,
  "Shin": 42461,
  "ĠproclamÃ³": 20601,
  "Ġhelen": 32547,
  "ĠHidrografÃŃa": 46609,
  "ko": 2006,
  "Ġnasal": 38658,
  "ĠvÃŃctimas": 8039,
  "patra": 25909,
  "Ġfavoritos": 24634,
  "Ġcreaciones": 32727,
  "Ġacord": 6450,
  "Ġcongre": 27150,
  "tolÃ³gico": 36797,
  "Ġdoscientos": 13727,
  "ĠmitolÃ³g": 26195,
  "ĠSilla": 42301,
  "potam": 34805,
  "Ġparecido": 6145,
  "ĠUV": 49066,
  "ĠSpec": 30796,
  "Ġ281": 41775,
  "ĠcomputaciÃ³n": 30613,
  "rad": 6906,
  "Ġofen": 11836,
  "Ġduras": 13923,
  "ĠPalazzo": 39460,
  "ĠTI": 35374,
  "Ġmorena": 22922,
  "ĠHÃ©rcules": 21191,
  "entes": 761,
  "Ġrema": 10739,
  "ĠMonta": 16033,
  "Ġ1902": 14597,
  "Ġsuprimido": 35075,
  "Ġprovincia": 2161,
  "ĠAFC": 25180,
  "Ġamenazas": 15572,
  "tÃ©cn": 36880,
  "CO": 9208,
  "Ġpene": 6733,
  "Ġestablo": 27212,
  "AdiÃ³s": 21106,
  "Kat": 36499,
  "ĠHonda": 11560,
  "Ġconocieron": 26018,
  "ÃŃpro": 27598,
  "ÃŃricas": 38000,
  "ĠCron": 16842,
  "Ġtemor": 7796,
  "uestros": 21812,
  "Ġinterferir": 45700,
  "1878": 44994,
  "all": 790,
  "Ġgolpea": 26971,
  "ĠMuÃ±": 38157,
  "Ġhablara": 25108,
  "ĠofrecÃŃan": 25619,
  "edi": 5897,
  "Ġnegocio": 7355,
  "Ġdices": 8735,
  "é": 175,
  "Ġsuble": 13741,
  "Ġdelib": 39522,
  "ĠvolverÃ¡s": 43167,
  "ese": 1618,
  "Ġordenada": 30298,
  "Ġbrevemente": 14844,
  "stan": 32216,
  "crim": 14515,
  "Ġcomienza": 5720,
  "..": 783,
  "ĠArre": 28957,
  "ĠFoster": 26461,
  "Ġidiomas": 12595,
  "Ġocupan": 22008,
  "Ġbe": 4180,
  "ĠNÃºÃ±ez": 16315,
  "ĠValjean": 47559,
  "Ġninguno": 6070,
  "Fun": 33809,
  "Fuentes": 46658,
  "endio": 47022,
  "ĠsucederÃ¡": 40349,
  "Ġguardas": 44887,
  "Ġmeses": 2574,
  "Ġencomen": 30080,
  "drÃ©": 12196,
  "ĠRDA": 39622,
  "udar": 16691,
  "Ġhaces": 8724,
  "Bomb": 47708,
  "tein": 9043,
  "ĠparecerÃŃa": 34894,
  "JoaquÃŃn": 46185,
  "Ġchi": 10269,
  "Ã³nde": 2304,
  "ĠRin": 10996,
  "Ġ3500": 47796,
  "ĠMonumentos": 27254,
  "soci": 27644,
  "Ġ1922": 10967,
  "Ð½Ñĭ": 49442,
  "iÃ©ramos": 38007,
  "Ġpavor": 30593,
  "Ġmaestre": 30772,
  "pac": 18430,
  "Ġenve": 16587,
  "is": 348,
  "Ġmiraron": 11873,
  "Ġcocodrilo": 42266,
  "Neil": 46162,
  "Ġtumbada": 34750,
  "Ġsuplement": 43094,
  "Ġ1929": 9911,
  "yin": 36310,
  "ĠJac": 4841,
  "Ġvolun": 3951,
  "yun": 28574,
  "ĠEditores": 28647,
  "Ġcomandada": 49948,
  "linas": 17326,
  "ĠVader": 45900,
  "Ġfin": 692,
  "Ġmaternidad": 34771,
  "Ġdella": 15975,
  "Ġoyes": 31227,
  "phie": 12468,
  "eri": 18803,
  "Ġcolectivo": 16478,
  "son": 735,
  "Ġsecuestro": 20892,
  "ĠmolestÃ³": 28800,
  "Ġemitida": 22176,
  "Ġinsecto": 29439,
  "ĠHoo": 33317,
  "Ã©stor": 20742,
  "Ġnieto": 13740,
  "Ġllegando": 7310,
  "onaldo": 48704,
  "ĠEN": 12815,
  "Ġpeligros": 8969,
  "Ġhemorrag": 30840,
  "ctores": 4063,
  "ĠWik": 13257,
  "riano": 17755,
  "ciles": 8557,
  "Ġfallas": 36423,
  "Ġadoptada": 30691,
  "ID": 7007,
  "ĠSoriano": 37984,
  "Liber": 29345,
  "ĠLimp": 33583,
  "ĠGarcilaso": 42474,
  "ĠAplic": 37463,
  "ĠDosto": 41355,
  "Ġline": 12854,
  "ĠConstitu": 5557,
  "ĠPiragÃ¼ismo": 31437,
  "ĠInfer": 28499,
  "ĠDocumentaciÃ³n": 49039,
  "ĠSims": 42373,
  "ĠvagÃ³n": 25506,
  "ĠarreglÃ³": 30365,
  "pando": 19825,
  "Ġregidor": 41205,
  "ĠArchie": 38399,
  "Ġsoberbia": 33054,
  "%)": 5534,
  "Ġmarcador": 16693,
  "Ġcostumbre": 7085,
  "Ġintercambi": 11212,
  "ĠEslovaquia": 20689,
  "SS": 7903,
  "ĠformÃ³": 6441,
  "ĠAcceso": 31392,
  "pear": 50125,
  "Ġaula": 28159,
  "Ġcontrolar": 7975,
  "Ġpregon": 46687,
  "Ġdestinos": 18160,
  "ĠrefiriÃ³": 31805,
  "Ġdestructores": 36834,
  "nab": 34886,
  "ĠRF": 41839,
  "ĠcontinuÃ³": 5501,
  "Ġcual": 863,
  "Ġ1660": 46905,
  "amer": 35699,
  "Man": 5551,
  "ñ": 183,
  "ĠparacaÃŃdas": 39348,
  "Ġguarniciones": 48099,
  "Ġ476": 49118,
  "Ġmoleculares": 41208,
  "ĠlingÃ¼ÃŃsticas": 49052,
  "ni": 4319,
  "Ġdiamantes": 21017,
  "ĠPascual": 18266,
  "ĠPorfi": 31105,
  "mite": 5480,
  "partido": 45540,
  "ĠTeniendo": 38404,
  "Ġdelicadamente": 42114,
  "ĠConstantinopla": 18282,
  "vill": 14051,
  "Ġportar": 49193,
  "Ġestip": 27936,
  "Ġdestruyeron": 39167,
  "ĠZhu": 39982,
  "ĠSergei": 45835,
  "Ġderivada": 27891,
  "Ġtom": 1096,
  "Ġsigilosamente": 44524,
  "dii": 48047,
  "ĠinvadÃŃa": 37046,
  "Jaime": 37059,
  "Sta": 10295,
  "Ġhonradez": 47876,
  "ĠconstruyÃ³": 9042,
  "ĠNas": 11286,
  "Ġlb": 48961,
  "ĠNorris": 47527,
  "Ġ%,": 39076,
  "jestad": 12423,
  "UER": 30918,
  "ĠnÃ¡useas": 27750,
  "DivisiÃ³n": 37751,
  "atlÃ¡n": 23652,
  "ĠÃ¡lbum": 2089,
  "Ġmutantes": 39977,
  "ĠSno": 39188,
  "ĠGaray": 37186,
  "ciende": 13342,
  "Ġdisparaban": 49662,
  "Ġcolore": 40819,
  "rak": 38052,
  "ĠHastings": 47009,
  "ĠaristÃ³crata": 31430,
  "tland": 37415,
  "ÃŃf": 1719,
  "Ġafin": 31577,
  "Ġcamino": 2209,
  "TS": 9529,
  "onne": 32037,
  "issen": 49807,
  "Ġdifiere": 35567,
  "ĠSparta": 26530,
  "ĠMexicali": 47514,
  "ivil": 2491,
  "Ġdepor": 2705,
  "gram": 14550,
  "ĠCarly": 39953,
  "ĠOrganiz": 7739,
  "asen": 11253,
  "Probablemente": 32251,
  "Ġexitosos": 33891,
  "tÃ³rico": 28059,
  "ĠheroÃŃsmo": 45053,
  "Ġrecompensas": 45191,
  "Ġpresidencia": 10141,
  "Ġ(-": 17372,
  "zcoa": 23071,
  "Ġconservados": 37944,
  "ACH": 42550,
  "Ġeuskera": 28964,
  "ĠForeign": 47194,
  "Ġprecaria": 44194,
  "ĠTransfermarkt": 45905,
  "Ġvieja": 5857,
  "gimiÃ³": 39096,
  "Ã¡i": 9913,
  "kil": 47269,
  "ĠRoc": 9932,
  "Ġmolestarse": 48887,
  "ĠSalvo": 31897,
  "Ġfichaje": 35489,
  "Ġdesvin": 43330,
  "carburos": 49198,
  "ĠDeb": 5880,
  "ĠHistor": 14359,
  "ĠActualizado": 32773,
  "Ġciclismo": 20613,
  "ĠAlo": 34435,
  "ĠTKO": 29047,
  "ĠWebb": 39002,
  "Ġtorero": 38058,
  "Ġprimeramente": 37857,
  "Ã©ctr": 4606,
  "eciras": 31739,
  "Ġintrigado": 39876,
  "angas": 36327,
  "Ġentiendo": 8847,
  "ĠElvis": 35037,
  "gascar": 22200,
  "peÃ³n": 7449,
  "ĠRivera": 11533,
  "UR": 11685,
  "Ġinocente": 12129,
  "AsociaciÃ³n": 26228,
  "ĠAmateur": 41032,
  "Ġextrater": 26611,
  "Ġexcepto": 8062,
  "Ġinfarto": 31208,
  "pes": 2800,
  "ĠInmigraciÃ³n": 46159,
  "logÃŃas": 24272,
  "ĠcostÃ³": 16349,
  "adÃ¡": 3539,
  "ĠsalvaciÃ³n": 18769,
  "ĠSouthampton": 41519,
  "rium": 38101,
  "Ġretirar": 20269,
  "Ġsevero": 24244,
  "ĠrazÃ³n": 2522,
  "ĠmÃ¡s": 445,
  "ibe": 6833,
  "ĠolvidÃ©": 43376,
  "iferia": 30327,
  "Ġordenanzas": 47993,
  "Ġlevantan": 39277,
  "ĠderribÃ³": 36812,
  "Ġnecesites": 49976,
  "Ġalcaldesa": 36820,
  "ĠpedÃŃan": 33382,
  "ĠotoÃ±o": 10570,
  "ĠAlmirante": 24175,
  "ĠSolamente": 28203,
  "fradÃŃas": 39427,
  "\"[": 21608,
  "jeda": 31309,
  "nec": 35756,
  "ĠllamÃ©": 27491,
  "Ġmarg": 22508,
  "Ġcontento": 13302,
  "Ġclaridad": 9500,
  "Ġhermanita": 44759,
  "Ġenfoca": 49954,
  "uto": 9281,
  "ĠEdwards": 22067,
  "Ġlealtad": 14905,
  "ĠPrac": 39514,
  "Ġvestigio": 48982,
  "ĠFalange": 36027,
  "ĠcompaÃ±eras": 24794,
  "lers": 38199,
  "porto": 26289,
  "Ġhones": 16180,
  "Ġalemana": 7466,
  "Ġoblic": 30803,
  "Ġ289": 40133,
  "ĠDen": 6845,
  "Ġincorporaba": 49383,
  "juez": 34645,
  "ĠaustrohÃºn": 36769,
  "Ġantena": 30138,
  "Ġyuca": 41096,
  "Ġrecog": 8594,
  "Ġasno": 48541,
  "Ġbul": 13404,
  "ei": 21262,
  "Ġhermosas": 20752,
  "umbre": 33558,
  "joy": 28370,
  "Ġasilo": 25683,
  "Ġcoronavirus": 33263,
  "oral": 25670,
  "ĠVenez": 4012,
  "Ġperiodista": 6396,
  "Ġ74": 11174,
  "Ġdispar": 3158,
  "Ġcolabora": 23972,
  "ĠderramÃ³": 48445,
  "ket": 8675,
  "ÙĪ": 26709,
  "Ġagresivo": 30478,
  "ulla": 12511,
  "Ġtierra": 2038,
  "Ġrival": 10792,
  "Ġgrab": 3487,
  "Ġ1777": 41507,
  "ĠConnecticut": 26681,
  "ĠDaisy": 35972,
  "Ġcarencia": 31627,
  "actualmente": 29748,
  "Ellos": 31896,
  "ĠpatrÃ³n": 10195,
  "Prepar": 43008,
  "Ġliberados": 32919,
  "ĠSN": 22418,
  "ĠZem": 38927,
  "ulen": 47915,
  "Ġinstitutos": 33149,
  "Ġrepetir": 11714,
  "Ġfing": 8471,
  "Ġmanifestarse": 46316,
  "Adam": 29567,
  "Ġsignificaban": 49586,
  "ĠGerhard": 38544,
  "uve": 17290,
  "gni": 18459,
  "ĠConstitucional": 21981,
  "iving": 35394,
  "Ġpariente": 20655,
  "Ãºmero": 12194,
  "jico": 49540,
  "Ġasesinar": 17958,
  "misa": 44268,
  "Ġcompetir": 14389,
  "ĠganarÃŃa": 35286,
  "ĠShel": 16975,
  "Ġespecializadas": 31233,
  "Ġoraciones": 22234,
  "cta": 2546,
  "Ġsolos": 10414,
  "sy": 10577,
  "Ġluto": 27470,
  "ĠAparentemente": 43120,
  "erop": 4200,
  "Are": 45261,
  "Veamos": 49630,
  "Ġllevado": 5296,
  "ĠNara": 43834,
  "lov": 9090,
  "terior": 1306,
  "tzsche": 30499,
  "ĠThird": 44100,
  "Ġdeshac": 21784,
  "elos": 5619,
  "irla": 42894,
  "ĠLakers": 29435,
  "ĠtendrÃŃa": 4641,
  "lic": 827,
  "paÃ±ol": 1568,
  "isan": 41807,
  "Ġabismo": 17991,
  "Ġ83": 12850,
  "thor": 30105,
  "Ġabomin": 38278,
  "Ġvestida": 13691,
  "Ã¡m": 2179,
  "ĠNÃ©stor": 22478,
  "eria": 5213,
  "1961": 19230,
  "Familia": 38947,
  "ĠLeona": 31710,
  "kha": 46576,
  "ĠtemÃ¡ticas": 36444,
  "Ġcandidaturas": 36067,
  "Ġciudadano": 16092,
  "igail": 33676,
  "Ġhindu": 34516,
  "Ġentera": 9727,
  "Ġpersi": 32673,
  "ĠPompe": 20302,
  "Villa": 20317,
  "Ġsalvar": 6946,
  "Ron": 28709,
  "Ã¡ndole": 3259,
  "Ġerudito": 29769,
  "Ġbrotaban": 50011,
  "Ġ%'": 48432,
  "Ġdob": 7757,
  "Ġpector": 43814,
  "Ġregidores": 49200,
  "Girl": 49756,
  "Ġadquirido": 14108,
  "ĠPaco": 18117,
  "ĠSte": 2593,
  "ĠprometÃŃa": 38607,
  "ĠMit": 13159,
  "ĠTerritorial": 35913,
  "Ġestar": 1425,
  "Ġhun": 5219,
  "ĠGreg": 6788,
  "Ġvideojuegos": 12660,
  "ieron": 1102,
  "Ġerrores": 11386,
  "Ġvinculado": 23267,
  "ĠmÃŃnimas": 37031,
  "ĠmantendrÃŃa": 36715,
  "-.": 6601,
  "Ġsobrevivientes": 26745,
  "ĠRambla": 48501,
  "Ġhabitualmente": 16201,
  "ĠlÃ³gica": 10500,
  "Ġeuropeo": 10534,
  "Ġpresupuesto": 14403,
  "dero": 2139,
  "ĠcarnicerÃŃa": 42753,
  "Ġatributos": 26597,
  "Ġfervor": 25324,
  "ĠSla": 23127,
  "Ġapoyaba": 22749,
  "Ger": 14303,
  "ĠRevista": 12473,
  "Ã±aba": 9501,
  "Ġinsta": 19871,
  "Ġmultitudes": 42124,
  "ĠNeed": 39090,
  "×¨": 49164,
  "Ġcargador": 37227,
  "ĠGC": 10749,
  "Ġinvolucrados": 28716,
  "Ġconcreto": 11314,
  "ĠEuropa": 2660,
  "Ġserial": 43364,
  "Ġfauces": 45412,
  "Ġconfortable": 42961,
  "ĠEstatal": 12198,
  "Ġrebot": 44933,
  "Ġretirarse": 12040,
  "ĠMary": 5677,
  "ĠPozo": 26513,
  "Gro": 34517,
  "Ġsumida": 39916,
  "Ġconvers": 3326,
  "ĠJoshua": 30411,
  "Ġreactor": 32056,
  "ompson": 18520,
  "ĠantigÃ¼edades": 39346,
  "Ġmell": 26970,
  "Ġletra": 7377,
  "ĠBaby": 20583,
  "Canciones": 48777,
  "Ġverja": 23175,
  "Ġmayoritaria": 48783,
  "riles": 9617,
  "Ġandas": 50127,
  "Ġmigas": 47254,
  "ĠMedio": 9491,
  "Ġgritaban": 34672,
  "LM": 42799,
  "Ġzona": 2253,
  "Ġprivilegiada": 37473,
  "pias": 4225,
  "Ġsoportaba": 32477,
  "Ã©roes": 20984,
  "Äģ": 9656,
  "zan": 5248,
  "ĠArran": 41506,
  "Ġk": 1016,
  "Ġpatente": 20727,
  "rah": 39925,
  "Michael": 18737,
  "Ġshort": 48062,
  "ĠtrÃŃ": 37920,
  "Ġpreferencia": 24884,
  "ĠCampaÃ±a": 24693,
  "Ġmonot": 30973,
  "ÃŃndr": 23703,
  "Ġsustituye": 35980,
  "ĠÃ³sea": 43314,
  "ĠMatthe": 16338,
  "Ġclima": 6753,
  "ĠCor": 1458,
  "Ġabed": 43642,
  "Ã©rico": 7840,
  "Ġgraciosa": 34508,
  "Ġdrenaje": 37251,
  "uros": 4817,
  "ĠColecciÃ³n": 17701,
  "ĠascensiÃ³n": 30508,
  "Estamos": 18271,
  "ĠFriend": 41701,
  "ĠdiseÃ±Ã³": 23300,
  "ColecciÃ³n": 42167,
  "ĠIrish": 37940,
  "ĠZe": 7686,
  "Ġsentido": 2490,
  "Ġestric": 10505,
  "ificados": 18627,
  "MAS": 49619,
  "ĠelÃ©ctr": 5302,
  "vell": 35814,
  "ulip": 25313,
  "Ġ1817": 28173,
  "arro": 1272,
  "erati": 43363,
  "Ð½Ð°": 25823,
  "Ġreligiosa": 8914,
  "ĠEsmeralda": 37777,
  "ĠquerrÃŃa": 19540,
  "asintiÃ³": 21365,
  "Ã³m": 1410,
  "Ġdecirte": 14341,
  "1912": 28671,
  "Ġator": 14069,
  "Ġhermanastro": 49450,
  "huana": 38637,
  "Ġrebauti": 36282,
  "dida": 1507,
  "Ġinte": 2021,
  "Ġvariaciones": 17419,
  "Fel": 16171,
  "ĠdirecciÃ³n": 2702,
  "Ġciru": 18757,
  "Frank": 22895,
  "Ġ169": 33300,
  "Ġvarones": 15627,
  "Ġdesapareciera": 47174,
  "Ġhacha": 19262,
  "PA": 9060,
  "ĠAbril": 21442,
  "ĠIGN": 46728,
  "ĠNagano": 49426,
  "ĠColumna": 41338,
  "filos": 34670,
  "ĠaparecerÃ¡": 45315,
  "tuos": 28046,
  "Ġalquim": 47757,
  "Ġdescon": 2533,
  "Ġfab": 4152,
  "vate": 28292,
  "ĠCunningham": 42991,
  "ĠpodÃ©is": 19977,
  "ĠStates": 22502,
  "ĠJulieta": 29935,
  "Ġesp": 922,
  "quitos": 20352,
  "Ġlugarteniente": 42683,
  "adar": 23322,
  "ĠturÃŃsticas": 38785,
  "Ġgoce": 41520,
  "Ġrepresentaba": 14425,
  "Ĳ": 248,
  "Ġdirigente": 18752,
  "Ġdebemos": 10058,
  "jedrez": 13835,
  "Evan": 40728,
  "Ġbue": 19689,
  "Ġcarros": 17265,
  "bad": 39054,
  "Ġ1700": 31601,
  "Ġsalarios": 23688,
  "ĠSousa": 31422,
  "jer": 753,
  "Ġjacob": 47499,
  "hara": 11331,
  "nesto": 11120,
  "Ġescuchan": 40661,
  "ĠMunicipal": 6376,
  "ĠpromulgÃ³": 44367,
  "Ġdemostrando": 29205,
  "ĠÃģn": 3482,
  "ĠMejÃŃa": 28534,
  "Ġrecibe": 7383,
  "Ġtormentos": 43139,
  "Ok": 39007,
  "ĠSirviÃ³": 44789,
  "Ġpersianas": 44873,
  "ĠTelefe": 40246,
  "viÃ©ndose": 14423,
  "Ġinquisidor": 36441,
  "Ġsangrienta": 35578,
  "alog": 36305,
  "Ġadornos": 24354,
  "quio": 19785,
  "Ġsola": 3048,
  "ĠdescribiÃ³": 13390,
  "Pasa": 31909,
  "ĠBauer": 37069,
  "Ġsudafricano": 47267,
  "à¦": 26934,
  "Ġsud": 15804,
  "visibles": 22006,
  "Ġcalificar": 41890,
  "Ġresistido": 44589,
  "ĠBAF": 42157,
  "control": 39458,
  "ĠArchivo": 2873,
  "antÃŃn": 48610,
  "ĠBengala": 39707,
  "Ġalmohad": 37009,
  "ĠWit": 20412,
  "ciente": 2538,
  "Ġmillar": 37999,
  "mini": 43931,
  "Ġricas": 24927,
  "Ġsard": 34524,
  "Ġdeseoso": 43759,
  "Ġcolecciones": 15729,
  "16": 2082,
  "Ġ1898": 14891,
  "Ġdesconfianza": 21326,
  "Ġestrangu": 31139,
  "ĠDemÃ³crata": 18350,
  "ding": 20735,
  "Ġpredecesores": 40428,
  "Ġtransformado": 21373,
  "Ġsemestre": 26756,
  "Ġpedestal": 36104,
  "Ġconfes": 7467,
  "ishes": 4757,
  "Ġlasci": 38975,
  "ĠmÃ¡gicas": 36508,
  "Sub": 16011,
  "ĠsirviÃ³": 7836,
  "Ġescasa": 13374,
  "Ġnota": 6312,
  "ĠsimulaciÃ³n": 33685,
  "SM": 28637,
  "ĠCuzco": 30296,
  "Ġcorporaciones": 40509,
  "ĠDiaz": 47200,
  "Ġdisputarse": 50071,
  "Ġexig": 4803,
  "SU": 37287,
  "Ġejecutada": 41758,
  "und": 1562,
  "Ġdescensos": 46235,
  "ĠEnsemble": 48177,
  "ĠTlax": 32798,
  "ambri": 18357,
  "Ġresume": 44171,
  "ionales": 5313,
  "Ġcontinua": 12868,
  "ĠRow": 23078,
  "ĠPearson": 43468,
  "tier": 11724,
  "Ä«": 18536,
  "ĠEsqu": 42492,
  "ÃŃe": 24326,
  "ĠM": 341,
  "ĠsoÃ±": 16263,
  "Ġcontribu": 9914,
  "abos": 34305,
  "Ġapuesto": 23915,
  "mul": 4694,
  "ctivas": 33793,
  "âĢĶâĢĶâĢĶâĢĶ": 46742,
  "omas": 2576,
  "ws": 3999,
  "Ġaumento": 7845,
  "chet": 16516,
  "ĠIndependiente": 9070,
  "ec": 397,
  "Ã©llar": 38452,
  "Ġacepta": 15312,
  "ĠLiliana": 45269,
  "ness": 14161,
  "eral": 6453,
  "tulo": 30368,
  "Ġcreadores": 27647,
  "Ġarbusto": 27018,
  "Ġja": 3407,
  "tiny": 26494,
  "Ġenvejecido": 41344,
  "ĠEspi": 46998,
  "Ġsuperior": 3343,
  "objetÃ³": 42641,
  "Ġcristalina": 45468,
  "03": 7527,
  "Ġpresentaban": 28599,
  "laban": 13063,
  "Ġestereo": 27966,
  "Ġservirse": 42619,
  "ĠAlbion": 40201,
  "Ġcoeficiente": 38488,
  "ĠColorado": 14317,
  "ĠTomorrow": 46269,
  "ĠCaven": 49432,
  "Ġpreliminares": 39999,
  "Ġ259": 43925,
  "Ġdosis": 15788,
  "ĠBeaumont": 45478,
  "Ġgrabaciones": 15087,
  "Of": 33521,
  "Ġdraft": 38688,
  "ĠWinston": 28169,
  "Ġdijese": 42778,
  "Ġdepositado": 35605,
  "Ã¡les": 14740,
  "tics": 16121,
  "Ġcontrabando": 31737,
  "ĠKids": 30225,
  "Ġdie": 9963,
  "ĠChamberlain": 48348,
  "comer": 44467,
  "Ġcinto": 41921,
  "Viva": 27165,
  "Ġbienestar": 15695,
  "Ġsorpresas": 32446,
  "quetes": 13964,
  "culaciones": 35119,
  "ĠRig": 24526,
  "Ġembeles": 46046,
  "ĠServicios": 13409,
  "Ġperfil": 11529,
  "ĠacuÃ¡tico": 46243,
  "Ġtelescopio": 27421,
  "ĠMicro": 23907,
  "Ġzig": 36194,
  "ĠEstoy": 6662,
  "Ġacoge": 35014,
  "Ġsobrevi": 5344,
  "Ġadorn": 13573,
  "Ķ": 252,
  "Ġbronce": 5469,
  "ĠCiclismo": 23858,
  "Ġfomento": 39412,
  "valor": 32670,
  "©": 112,
  "Ġdeline": 44664,
  "Ġpolvo": 6944,
  "Ġciudadana": 31270,
  "Ġfamiliar": 5433,
  "paci": 26734,
  "ĠdÃ©s": 48781,
  "Ġ448": 47436,
  "ĠDNS": 24604,
  "curru": 18075,
  "ĠMercedes": 10594,
  "gruÃ±Ã³": 20475,
  "Ġabate": 37067,
  "Ġjovencita": 32098,
  "ione": 12607,
  "tang": 49670,
  "ĠHeinz": 34208,
  "Ġmonto": 41211,
  "ĠpuÃ±etazos": 41068,
  "Ãºa": 3850,
  "ĠCambios": 48074,
  "ĠEstudiante": 48080,
  "ĠLemos": 41268,
  "ĠKong": 12235,
  "Vos": 41463,
  "ĠYves": 40626,
  "Ġdeber": 4473,
  "distrito": 34173,
  "Ġtrun": 33545,
  "ĠMarcela": 31260,
  "iemb": 7108,
  "ĠrÃŃgidos": 42212,
  "Ġpenetr": 36106,
  "MÃºsica": 29109,
  "Ġimpera": 31412,
  "Ġtitular": 6935,
  "gÃ¼edad": 11538,
  "Ġcrueles": 30928,
  "ĠPolÃŃticos": 45411,
  "Ġlanzamiento": 6370,
  "ĠEmilia": 22302,
  "Ġcautelos": 29989,
  "Lang": 34504,
  "ĠtirÃ©": 46409,
  "ĠtÃº": 1920,
  "minente": 15969,
  "roeste": 11062,
  "ezer": 49951,
  "ification": 46762,
  "Ġdesal": 21677,
  "ĠClara": 10259,
  "vio": 5338,
  "Ġcalzoncillos": 40098,
  "ĠEven": 45980,
  "ĠDese": 40076,
  "Ġtemprana": 12743,
  "ĠGill": 24087,
  "Ġdespi": 8273,
  "ĠPtolomeo": 32979,
  "stad": 15217,
  "telli": 33474,
  "Ġmotocicleta": 35468,
  "Ġidentidades": 39540,
  "Ġzum": 17048,
  "Ġtermin": 1710,
  "Ġ1913": 11430,
  "ĠemigrÃ³": 32542,
  "Ġequivocado": 13739,
  "Ġbasan": 30533,
  "ĠdivulgaciÃ³n": 29701,
  "Ġreemp": 5170,
  "Ġiones": 33191,
  "ĠcortÃ³": 16164,
  "ĠAhora": 3208,
  "Ġexpectativas": 21048,
  "cenas": 10346,
  "ĠCameron": 21948,
  "ĠFlavia": 47066,
  "Ġbuscaron": 32124,
  "Ġpintado": 15773,
  "|": 101,
  "ĠDistribu": 39969,
  "pecies": 6491,
  "Ġinterpretaron": 47935,
  "ĠBruselas": 12202,
  "ĠAguascalientes": 31976,
  "Def": 25064,
  "Ġdiferenci": 11542,
  "Ġradiante": 20913,
  "ĠÃīstos": 46130,
  "frenia": 45403,
  "Ġpararse": 46144,
  "ĠRedu": 47422,
  "ĠEvar": 47386,
  "Ġconducidos": 44310,
  "Ġencomend": 24364,
  "ĠBrad": 12342,
  "ĠEspacio": 25063,
  "DVD": 36420,
  "ĠGÃ©nesis": 41253,
  "Ġposes": 14170,
  "ĠSeo": 26568,
  "Ġ02": 9259,
  "Ġocultos": 22977,
  "Ġcabina": 12785,
  "Ġvara": 28082,
  "Ġcodific": 37015,
  "Ġfos": 17212,
  "'d": 35161,
  "lagros": 15294,
  "ĠprecipitaciÃ³n": 25007,
  "Ġgotas": 16867,
  "ĠfrÃŃa": 7060,
  "ÃŃno": 33702,
  "Ã³genos": 40995,
  "ĠEditor": 20795,
  "Ã¡pa": 45287,
  "ĠNecesitamos": 44468,
  "ĠSas": 12890,
  "Ġdedicaron": 34309,
  "ĠmatarÃ¡": 49767,
  "Ġpesa": 23165,
  "ĠJessica": 21528,
  "Ġ1854": 21733,
  "ĠDoyle": 29845,
  "Claro": 7924,
  "Ġá¼": 39257,
  "teaban": 27642,
  "ĠLiberia": 37280,
  "Ġamaba": 11931,
  "Ġcomun": 1400,
  "Ġexplosivo": 33862,
  "Ġcentinelas": 33755,
  "tuosa": 14552,
  "Er": 14724,
  "ĠVietnam": 12539,
  "ĠEllen": 25576,
  "ĠIgna": 8162,
  "Ġmarinos": 17567,
  "Ġadue": 32638,
  "Ġjor": 47075,
  "Mejor": 10678,
  "Ġvest": 7790,
  "ĠartÃŃstica": 10292,
  "bins": 44900,
  "ĠperiÃ³dica": 44552,
  "ĠMc": 3553,
  "Ġballenas": 39481,
  "Ġnotable": 9489,
  "ĠMadero": 25804,
  "ĠScale": 36697,
  "ĠvendÃŃan": 37267,
  "ĠFeliz": 41973,
  "Ġjusto": 4196,
  "Ã¡zaro": 20050,
  "Ġestrech": 13506,
  "ĠUP": 38181,
  "Ġgru": 1118,
  "venant": 41406,
  "Ġincluido": 8347,
  "Ġexit": 11513,
  "ĠBrain": 44863,
  "punto": 33130,
  "Ġcumplirse": 47901,
  "Ġdestino": 4642,
  "Ġveter": 11785,
  "Ġ'-": 9836,
  "ĠlevantÃ©": 19731,
  "Ġconglomerado": 46383,
  "ficul": 4931,
  "ĠMoisÃ©s": 23516,
  "trÃ¡fico": 36702,
  "Ġevita": 30025,
  "Ġlacayo": 41721,
  "ĠautÃ³": 15733,
  "imes": 50035,
  "ĠJaramillo": 46958,
  "Ġdog": 24128,
  "olita": 28137,
  "ĠAfortunadamente": 33646,
  "ĠRogelio": 37725,
  "ĠOrg": 30324,
  "ĠChen": 20621,
  "El": 703,
  "Ġencarga": 19198,
  "ĠGuevara": 23522,
  "Ġsimplemente": 4886,
  "omet": 47349,
  "yste": 10555,
  "leto": 9027,
  "Ã¡rio": 42107,
  "Ġproductiva": 36523,
  "Ġcamaradas": 24610,
  "ĠRennes": 50160,
  "ĠmorirÃŃa": 28445,
  "ĠKana": 33192,
  "Ġperci": 6085,
  "ĠGra": 2679,
  "Ġcomputadoras": 25927,
  "Ġdestructor": 35269,
  "Ġabraz": 19191,
  "Ġnaturalista": 25285,
  "ĠaerÃ³dromo": 35369,
  "Ġ1826": 26948,
  "Ġactrices": 31346,
  "Con": 2118,
  "Ġgrandes": 1842,
  "landesa": 14939,
  "ĠPenit": 37325,
  "ĠSola": 40173,
  "Ġatravesar": 15090,
  "trÃ©s": 28512,
  "IT": 10710,
  "ĠCarbon": 31772,
  "ĠPresent": 25023,
  "Ġalmenas": 45460,
  "Ġestuviste": 45446,
  "timo": 36568,
  "ĠnominaciÃ³n": 26073,
  "Argentina": 15697,
  "omag": 32650,
  "ĠQua": 46795,
  "Ġtorno": 5359,
  "Ġmaravillosos": 35265,
  "ĠGames": 21714,
  "ui": 13817,
  "ĠCerro": 11459,
  "Ġtribus": 13484,
  "Ã¤t": 46870,
  "rena": 18644,
  "Ġmalvada": 39208,
  "ÄĹ": 45703,
  "ĠDelantero": 24789,
  "Ġrazones": 6488,
  "lad": 2882,
  "Ġduquesa": 16265,
  "chea": 23161,
  "Ġ122": 24848,
  "zul": 45474,
  "mbre": 1662,
  "ĠHad": 21595,
  "Ġalumnas": 48741,
  "Ġemisora": 20409,
  "Ġrecipientes": 41285,
  "Ġherencia": 12707,
  "ĠOperaciÃ³n": 18300,
  "Ġirac": 48514,
  "Ġnata": 40644,
  "ĠpartÃŃcula": 29158,
  "dense": 30046,
  "Ġramo": 25690,
  "Ġglobo": 19061,
  "ĠAr": 680,
  "Ġexterminio": 35730,
  "ĠprÃ©stamos": 26725,
  "ĠprÃ³logo": 21877,
  "ĠMÃ¡s": 3683,
  "ĠPatro": 38121,
  "Ġbandejas": 46545,
  "Ġhuyen": 46140,
  "Ġtim": 7367,
  "Ġrevelaciones": 40453,
  "ĠVerne": 42478,
  "Ġentra": 5774,
  "Ġofrez": 31921,
  "Ã¡in": 38919,
  "Ġmuchachas": 17799,
  "ĠpunterÃŃa": 38727,
  "ĠTer": 2175,
  "ĠAngola": 25468,
  "iologÃŃa": 37802,
  "erÃŃa": 1003,
  "ĠCorreos": 39127,
  "ĠKarlo": 44923,
  "Ġlinternas": 45862,
  "Ġsupe": 13394,
  "ĠampliÃ³": 24745,
  "Ġmostrara": 48517,
  "Ġtri": 2174,
  "Ġacordado": 23227,
  "ĠAmericanos": 49641,
  "Ġestablecida": 17127,
  "ladi": 34564,
  "ĠKrist": 18247,
  "Ġacomo": 9629,
  "ĠBros": 18998,
  "Ġsuperviviente": 34917,
  "Ġextenderse": 34903,
  "Ġinefica": 44523,
  "FR": 33100,
  "ĠUcran": 10766,
  "ĠVallec": 40486,
  "Ġmirarle": 25773,
  "Ġviolenta": 17221,
  "wl": 46408,
  "ĠHotel": 12443,
  "Ġpez": 8054,
  "Ġreglas": 9900,
  "Ġvoltaje": 44719,
  "Ġconcienz": 47155,
  "ĠFunes": 47239,
  "Ġmuertes": 15357,
  "ĠGuang": 37921,
  "Ġpus": 6369,
  "ĠAlliance": 35502,
  "ĠFunda": 43194,
  "Ġfrancotir": 36247,
  "P": 57,
  "piran": 40973,
  "ĠDiputados": 14163,
  "ĠArrow": 49554,
  "Ġgrupo": 1548,
  "Ġdevorado": 45902,
  "Ig": 15243,
  "Ġrendimiento": 12249,
  "Ġafric": 10037,
  "cif": 15345,
  "Ġcontrajo": 17622,
  "thon": 32885,
  "ĠGiorgio": 28167,
  "ĠDestinos": 49074,
  "Ġentusiasmado": 35953,
  "ĠChung": 46577,
  "tok": 39147,
  "IS": 4756,
  "ĠplÃ¡stico": 12353,
  "Ġplayoffs": 33415,
  "viejo": 34926,
  "ĠJohannes": 20463,
  "Ġdiputada": 34892,
  "meraldas": 31863,
  "Ġesfum": 24678,
  "itroÃ«n": 28259,
  "Ġsentirse": 9432,
  "Ġfascismo": 34958,
  "Ġagrupa": 40414,
  "Ġimperturbable": 48882,
  "Ġconsecuencia": 5625,
  "produ": 17369,
  "ĠJosÃ©": 1687,
  "Ġove": 15530,
  "ĠDia": 16389,
  "Ġemocionada": 31401,
  "ifato": 41302,
  "Ġmuestras": 11669,
  "trospec": 24664,
  "Ġgratuita": 23475,
  "Ġopositores": 29094,
  "Ġdirec": 3551,
  "ĠÃ¡rbol": 3155,
  "ombie": 49196,
  "Ġmediano": 12425,
  "ior": 776,
  "iting": 44833,
  "-": 22,
  "ĠCurios": 23341,
  "Ġnudillos": 26118,
  "ĠRoberts": 20914,
  "grama": 6015,
  "ĠiluminaciÃ³n": 16414,
  "ylvania": 36262,
  "tiembre": 25301,
  "ĠLions": 35370,
  "Ġenco": 6139,
  "ĠÃģmsterdam": 16041,
  "Ġrudo": 43178,
  "Space": 30568,
  "Ġhacerlo": 3086,
  "Ġperj": 41739,
  "ç": 173,
  "iana": 2241,
  "Ġmiedo": 3174,
  "Amer": 34793,
  "ComitÃ©": 50046,
  "ĠReseÃ±a": 35796,
  "Ġleopardo": 31547,
  "ĠseparÃ³": 16004,
  "ulaciones": 29742,
  "Ġdiv": 9035,
  "ĠGrig": 38216,
  "uno": 4005,
  "Ġ(;": 40138,
  "ĠBirmania": 28488,
  "tipo": 9025,
  "Ġprovoca": 13255,
  "Ġtelas": 25132,
  "ĠhÃ©roe": 10226,
  "Ġadmirado": 33400,
  "cto": 1607,
  "enza": 7222,
  "Ġmon": 941,
  "Campe": 41223,
  "Lost": 43142,
  "Ġ911": 37212,
  "ĠEusk": 23900,
  "Ġsubo": 29029,
  "Ġmago": 17886,
  "ĠRSS": 30549,
  "Ġlinajes": 49913,
  "ĠGiras": 39709,
  "ĠSici": 13454,
  "Ġdichoso": 41073,
  "hanna": 39359,
  "ĠWhat": 24031,
  "Ġdespiadado": 43878,
  "Ġdespre": 6473,
  "Ġholotipo": 47651,
  "ĠmandÃŃbula": 14382,
  "ĠarquitectÃ³nico": 23425,
  "ĠdaÃ±o": 5709,
  "rek": 34849,
  "ĠStras": 41333,
  "cedo": 29620,
  "Ã¡nsito": 14138,
  "ĠAgraria": 47810,
  "ĠABA": 33548,
  "turn": 26565,
  "Ġtempor": 4332,
  "garse": 6391,
  "Ġcolonias": 13887,
  "Ġabar": 12328,
  "Ġmontada": 33790,
  "ĠLambert": 34600,
  "Ġburro": 39791,
  "Ġantes": 970,
  "CariÃ±o": 41475,
  "Ġrodearon": 35917,
  "ĠChloe": 42298,
  "Ġexperimentales": 33546,
  "Ġautom": 4967,
  "entaba": 16766,
  "Ġtrep": 46763,
  "bri": 20900,
  "ÅĻ": 22836,
  "ĠSucesiÃ³n": 37469,
  "Ġdo": 728,
  "Ġaristoc": 16438,
  "ĠGur": 21499,
  "arlas": 21027,
  "kespeare": 16397,
  "Ġvivi": 45185,
  "fin": 9314,
  "Ġpermitirle": 42821,
  "ĠCoro": 23911,
  "tibilidad": 32079,
  "Ġfracasos": 40278,
  "Ġcober": 11099,
  "ĠStefano": 29851,
  "Ġplateada": 35797,
  "Ġoriental": 7519,
  "igata": 49479,
  "ponimia": 18933,
  "ĠRela": 21322,
  "amentos": 7703,
  "rai": 23301,
  "Ġmedianoche": 16285,
  "ĠAerol": 37674,
  "Ġdesgraciadamente": 48796,
  "Ġprohi": 9972,
  "Ġcaminata": 37705,
  "fri": 12415,
  "Ġagradable": 8008,
  "Marvel": 42038,
  "ĠMaure": 41175,
  "Ġestablecer": 7161,
  "Ġvalientes": 26788,
  "Ġanoche": 16199,
  "ĠEnsayo": 36902,
  "landa": 7135,
  "ĠArta": 44465,
  "Ġtelefone": 26589,
  "ĠUrgel": 44709,
  "Ġcruzadas": 23882,
  "macia": 30480,
  "carriles": 16610,
  "ĠToronto": 14532,
  "Ġautopista": 18753,
  "Ġrevuelo": 40706,
  "Ġsobrio": 41748,
  "ĠNÃ³": 29386,
  "Ġconqu": 4372,
  "ĠJenn": 14863,
  "Pl": 47092,
  "ĠlimitaciÃ³n": 36164,
  "ĠSalzburgo": 35792,
  "Ġtrib": 9056,
  "Ġaceptando": 32928,
  "ĠMÃ¼nchen": 48122,
  "uego": 840,
  "Ġaband": 2181,
  "Ġsegmento": 20049,
  "ĠPienso": 33018,
  "Ġespirituales": 26965,
  "ĠGalicia": 10415,
  "ĠRober": 18082,
  "Ġhabido": 11336,
  "ĠCasta": 17908,
  "Z": 67,
  "Ġvi": 1006,
  "ĠreseÃ±a": 29138,
  "ĠFederer": 45016,
  "ĠfÃ©retro": 44853,
  "ggio": 33372,
  "ĠNeil": 22378,
  "atÃ³n": 15362,
  "ĠvÃ³": 38156,
  "Ġconsideraron": 29146,
  "Ġcarica": 20158,
  "ĠRegatas": 43073,
  "delfia": 18412,
  "Ġsoplo": 32065,
  "Ġnazismo": 43592,
  "Ċ": 208,
  "quil": 2299,
  "Ġtemblando": 19326,
  "anie": 16172,
  "ĠRÃ¡pidamente": 38952,
  "ĠRagn": 43299,
  "ĠLegiÃ³n": 18914,
  "ĠNacimiento": 38597,
  "Ġreloj": 6985,
  "Ġcommun": 35018,
  "ĠSn": 32035,
  "ĠmÃºsculo": 22347,
  "Ġapart": 8785,
  "Ġlibera": 27072,
  "ĠBenedi": 20214,
  "ĠNay": 29154,
  "ĠManuela": 21808,
  "Ġpetri": 26772,
  "Ġdelanteros": 39006,
  "Ġbalbuce": 32633,
  "ĠMoneda": 34015,
  "itim": 23134,
  "Ġ00": 1375,
  "ĠVive": 22461,
  "Ġbloque": 6589,
  "hib": 7885,
  "ĠâĪĴ": 19961,
  "Ġdet": 35884,
  "Ġcampos": 6346,
  "Ġoratorio": 49431,
  "ents": 21458,
  "ĠlibrerÃŃas": 45990,
  "Ġsosten": 4687,
  "ĠLeg": 5536,
  "Ġalterado": 27547,
  "ĠTokio": 11645,
  "ition": 48566,
  "Ġmisterioso": 15506,
  "ĠdictÃ³": 34566,
  "rioso": 7766,
  "Ġalfab": 49644,
  "Ġconste": 19370,
  "Ġcurios": 5877,
  "ĠcubrÃŃan": 23125,
  "ĠUDI": 43326,
  "ĠrÃ¡pidamente": 4089,
  "Ġnecesitaba": 5711,
  "Ġdescontro": 45757,
  "ĠfÃŃsicas": 13738,
  "Ġempujar": 23345,
  "siones": 3111,
  "ĠjudÃŃas": 26956,
  "ĠafiliaciÃ³n": 46482,
  "ĠMagos": 43722,
  "mm": 11284,
  "Ġsientan": 36931,
  "ĠTaekwondo": 35589,
  "ĠejecutÃ³": 38670,
  "ĠEri": 18376,
  "Ġ1905": 12811,
  "bur": 2452,
  "tizaciÃ³n": 14470,
  "]\".": 47811,
  "ĠAlve": 30089,
  "Ã³rico": 8452,
  "ĠEstilo": 31332,
  "ĠDefiniciÃ³n": 40881,
  "Ġprovee": 38646,
  "Ġcomparte": 20869,
  "ĠinstituciÃ³n": 8053,
  "ĠOnda": 44876,
  "abert": 46628,
  "iri": 8491,
  "Ġmanteniendo": 14606,
  "Ġtanques": 15992,
  "Ġexclamaciones": 45344,
  "Ġdecirse": 16547,
  "Ġnecesidades": 9716,
  "rez": 2172,
  "Ã¡sticas": 17471,
  "Muerte": 35675,
  "Ġestablecidos": 24730,
  "Ġtrapos": 44007,
  "Ġconex": 7830,
  "ĠjudÃŃa": 14580,
  "ĠBez": 39918,
  "Ġinca": 5476,
  "igÃ³n": 18152,
  "-'": 22758,
  "Ġtiemb": 30647,
  "ĠsombrÃŃos": 50069,
  "Ġresiste": 39034,
  "ĠviÃ©ndose": 43825,
  "Ġprocedencia": 26162,
  "Ġdisper": 12965,
  "Ġquedarte": 26180,
  "ĠVernon": 37456,
  "Ġ229": 37794,
  "ĠForo": 22770,
  "ĠazÃºcar": 11398,
  "Ġguatemalte": 38485,
  "Ġestragos": 32824,
  "Ġfilas": 9995,
  "ĠClav": 34634,
  "ĠcortesÃŃa": 19777,
  "eae": 10356,
  "Ġbalanceaba": 49421,
  "Ġtejas": 42413,
  "Ġformando": 8425,
  "Ġimprim": 17828,
  "ĠhabÃ©r": 33465,
  "ĠRockefeller": 50111,
  "ĠPER": 25952,
  "ĠtelevisiÃ³n": 2384,
  "Ã©in": 37865,
  "tii": 37604,
  "ĠfilosofÃŃa": 7734,
  "Ġ356": 38094,
  "Ġsoporte": 13253,
  "Ġcables": 19922,
  "ĠCrystal": 30118,
  "Ġid": 8231,
  "Ġagradecimiento": 19355,
  "Ġbusque": 39470,
  "Ġencantan": 47754,
  "eroe": 46780,
  "Ġilust": 5471,
  "Ġhayamos": 26093,
  "ordin": 5498,
  "cac": 38129,
  "Ġfragilidad": 47424,
  "Ġchis": 10717,
  "Ġprosper": 15204,
  "ĠRise": 42426,
  "ĠPeÃ±": 29612,
  "Ġrico": 9947,
  "Ġsun": 22249,
  "ĠNes": 25388,
  "Ġpermaneciendo": 30326,
  "cate": 18107,
  "ĠMatt": 11480,
  "entimiento": 10763,
  "Ġsupervis": 14067,
  "ĠStran": 42694,
  "Sep": 37549,
  "bÃ³": 15497,
  "quimbo": 29603,
  "Ġveintena": 38165,
  "ĠGP": 19814,
  "ĠHanna": 12711,
  "ĠNe": 1634,
  "Ġnec": 22316,
  "Ġdesarrollos": 39190,
  "AF": 10086,
  "Ġextraordinario": 14745,
  "Ġcaza": 7633,
  "Ġdescubrieron": 20321,
  "madura": 16040,
  "ĠSuele": 32418,
  "ĠYoo": 47248,
  "Ġeriz": 25480,
  "ose": 18867,
  "ĠSI": 34711,
  "ĠCN": 14371,
  "Ġexponentes": 42113,
  "Ġautorizados": 49818,
  "Ġplanetario": 30249,
  "Ã¨": 3359,
  "Ġdocena": 12480,
  "Ġalbar": 48502,
  "1885": 43505,
  "ĠCardi": 29673,
  "Ġserias": 30203,
  "ĠpasarÃŃa": 14605,
  "ĠpeticiÃ³n": 10959,
  "Susan": 41875,
  "Ġvoce": 38456,
  "Ġconvertida": 25274,
  "ĠTut": 25752,
  "Ġcomete": 47918,
  "Ġ1895": 15339,
  "ĠDial": 36956,
  "chad": 40693,
  "ĠfunciÃ³n": 4831,
  "uzn": 42346,
  "ĠEsther": 20091,
  "Ġarrugado": 36882,
  "Ġconvin": 21300,
  "ĠApol": 22693,
  "ĠMosco": 44962,
  "Ġfebrero": 2157,
  "ĠGraham": 17375,
  "107": 37995,
  "ĠPsico": 50221,
  "Ġtender": 30108,
  "ĠtardÃ³": 12482,
  "Ġvital": 12674,
  "for": 758,
  "Lar": 19581,
  "ĠAndrea": 11835,
  "ĠSentÃŃa": 20651,
  "ĠContinuÃ³": 29770,
  "Fo": 17098,
  "Ġexisten": 5945,
  "ceso": 1944,
  "ĠAaron": 16666,
  "Ġwh": 30270,
  "licer": 46168,
  "Ġalzaban": 33883,
  "ĠEleg": 41422,
  "ĠTorn": 27857,
  "Ġpionera": 39124,
  "ĠEjecutivo": 16228,
  "ĠFilarmÃ³nica": 32990,
  "ĠSindicato": 28703,
  "ĠKahn": 44442,
  "ocus": 41372,
  "ĠOvidio": 49091,
  "e": 78,
  "Ġintegrada": 15956,
  "ĠMcIn": 49430,
  "Ġfuente": 5411,
  "Ġnegarlo": 45282,
  "Ġamores": 22140,
  "ĠSuiza": 7549,
  "Ġreflejos": 24568,
  "ĠFinlandia": 12288,
  "Ġsets": 37232,
  "ĠgramÃ¡tica": 29731,
  "ARD": 31881,
  "11": 2591,
  "ĠRod": 15453,
  "Ġhicieron": 4458,
  "Ġpern": 40944,
  "ĠÅŀ": 46151,
  "Ġtransportar": 20201,
  "dÃŃas": 18053,
  "O": 56,
  "Ġtapa": 13480,
  "Ġfilo": 14866,
  "ĠJerusalÃ©n": 11419,
  "Ġsustento": 35974,
  "ĠFig": 19440,
  "Ġvejiga": 49730,
  "ĠteÃ³logos": 48425,
  "Ġg": 364,
  "Ġpublicadas": 19468,
  "Ġpasadizo": 31466,
  "ibio": 22848,
  "Ġhinchados": 38916,
  "ĠÃŃndice": 10815,
  "Ġcontemplando": 16217,
  "Ġvigentes": 44252,
  "ĠBalles": 27593,
  "ĠTeresa": 8405,
  "ob": 697,
  "Ġ285": 37645,
  "Ġcastel": 23556,
  "cuenca": 44064,
  "ĠenvÃŃa": 16936,
  "feld": 15543,
  "puedo": 48453,
  "ĠWheeler": 14405,
  "Ġdesar": 20972,
  "Ġeventual": 33574,
  "ĠpoesÃŃa": 7320,
  "Ġemisor": 47698,
  "Ġturista": 41370,
  "ĠRuby": 38223,
  "a": 74,
  "Ãºmulos": 48079,
  "inosas": 36102,
  "Ġdis": 657,
  "ĠHet": 41753,
  "tle": 4516,
  "Ġalum": 5431,
  "Ġrefin": 32061,
  "Mala": 43403,
  "CD": 9487,
  "tÃ¡ndola": 31175,
  "Ġartificiales": 19813,
  "ĠLit": 27159,
  "ĠestÃ³ma": 7780,
  "ĠRoy": 5979,
  "ĠNuestro": 16034,
  "Ġminia": 21640,
  "ĠarquitectÃ³nicos": 38167,
  "ĠExiste": 15568,
  "ĠcapturÃ³": 34427,
  "ĠMunicipios": 23650,
  "ĠMÃ©ndez": 13279,
  "Ġdistribuida": 28523,
  "quillas": 21832,
  "Ġdespegar": 33494,
  "NE": 23968,
  "lamiento": 14156,
  "ĠRo": 1215,
  "gueses": 15074,
  "usiones": 10006,
  "Una": 3329,
  "Ġconserva": 9706,
  "ĠMoldavia": 33801,
  "Ġllamarla": 31384,
  "aves": 23431,
  "ĠEllas": 40122,
  "landia": 7507,
  "Ġenfo": 10193,
  "ĠdetectÃ³": 47140,
  "tuviera": 19983,
  "Ġacres": 36361,
  "entina": 23153,
  "ĠmolÃ©": 13907,
  "ĠBox": 17904,
  "rarme": 18068,
  "Ġpaja": 17162,
  "vinas": 19190,
  "ĠToc": 25899,
  "ĠCarreras": 29240,
  "ĠUlloa": 30848,
  "Escu": 14027,
  "hlen": 33918,
  "Ġenfermedad": 5400,
  "Ġreglamento": 27804,
  "ĠConcordia": 32661,
  "Ġsugerido": 23079,
  "gro": 4181,
  "ĠsÃŃ": 1176,
  "Ġviolaciones": 31979,
  "Ã©sar": 5636,
  "Ġaves": 7775,
  "ĠabandonarÃŃa": 49246,
  "Ġmasacre": 23804,
  "Ġhunde": 39861,
  "Ġsecretos": 10196,
  "Ġpulsera": 33384,
  "ĠKip": 24076,
  "ĠPosadas": 47725,
  "Ġarbi": 19165,
  "ĠSent": 11148,
  "Ã§on": 41024,
  "ĠNate": 34346,
  "Ġ510": 47722,
  "ĠMuchos": 9033,
  "Ġcenso": 4752,
  "ĠDif": 13014,
  "Ġprivilegiado": 44669,
  "ĠminÃºscula": 37714,
  "Ġfom": 13599,
  "Ġesperanz": 33958,
  "ĠMadel": 47749,
  "Ġestablecidas": 18739,
  "ba": 634,
  "Ġcofundador": 41944,
  "ĠClark": 14959,
  "Ġaccedido": 43054,
  "mler": 40608,
  "Ġalmacenamiento": 19745,
  "timos": 15180,
  "Ġalcoh": 22429,
  "ĠBlasco": 40030,
  "Ġexcusa": 14627,
  "reak": 22728,
  "Ã³mulo": 31523,
  "inz": 23913,
  "Ġsuminist": 8801,
  "ĠPhiloso": 29621,
  "ĠTimothy": 29091,
  "Ġatmosf": 24717,
  "Olivia": 42908,
  "uter": 26143,
  "Ġenj": 31075,
  "Ġcantidad": 3738,
  "gencia": 5861,
  "ĠcaserÃŃo": 32160,
  "izados": 9382,
  "Ġcameo": 43067,
  "Ġmarxista": 32852,
  "Ġpretexto": 20716,
  "ĠAcababa": 38314,
  "Ġbulevar": 36997,
  "Todo": 7268,
  "fuente": 40627,
  "Ġadqui": 4580,
  "evo": 43146,
  "ĠRico": 8917,
  "tanasio": 45782,
  "Ã±ada": 9144,
  "Ġceleste": 22244,
  "Ġharto": 21092,
  "ĠcogiÃ³": 5903,
  "ĠFla": 12038,
  "Ann": 28487,
  "ĠAndreu": 40118,
  "Ġmanip": 14456,
  "Ġenfado": 24595,
  "ĠMed": 8003,
  "posa": 13692,
  "bar": 2140,
  "Ġ1813": 26907,
  "ĠBosque": 20647,
  "Ġhob": 45637,
  "Ġcesado": 29005,
  "ĠSilvestre": 27509,
  "ĠTrinity": 38380,
  "ĠantÃ¡r": 38207,
  "Ġdelicada": 18473,
  "Ġconvertidos": 31905,
  "ĠcilÃŃndr": 25124,
  "nas": 1788,
  "ĠperiÃ³dicamente": 38881,
  "ĠconsagrÃ³": 29233,
  "ĠIbero": 21090,
  "Ġdesactiv": 36540,
  "ĠCode": 43099,
  "Ġchirri": 37675,
  "ĠJupiter": 46030,
  "ĠBologna": 40673,
  "ĠterapÃ©": 28017,
  "ĠIND": 32857,
  "Ġantecesor": 36755,
  "aly": 40082,
  "iosco": 42896,
  "ĠcomposiciÃ³n": 8142,
  "Ġtrate": 22973,
  "Ġcirculaban": 46700,
  "Santa": 12697,
  "dal": 1726,
  "Ġ600": 10829,
  "Ġfijos": 19671,
  "Ġdemasiados": 22598,
  "iser": 19375,
  "ĠConn": 12086,
  "ĠPista": 25816,
  "Ġdisuelta": 44574,
  "Andr": 35338,
  "Ġbizco": 41853,
  "Ġrascacielos": 28459,
  "Ġvenezolana": 25216,
  "wyn": 34080,
  "consin": 19904,
  "Ġatravesaron": 39817,
  "1891": 39589,
  "Ġevad": 32544,
  "Ġmurm": 12237,
  "Ġgastado": 29176,
  "ĠAbajo": 30208,
  "itas": 2523,
  "ĠJesus": 34258,
  "Ġantici": 19831,
  "Ġalmirante": 15124,
  "DÃ©": 30742,
  "ĠCompu": 22331,
  "ĠJohnson": 10506,
  "Ġviva": 7948,
  "Ġbastante": 2657,
  "By": 42483,
  "Ġdedicar": 16267,
  "Ġnumeroso": 33370,
  "Ġvictorioso": 38144,
  "ĠConsider": 28934,
  "Ġdel": 337,
  "enda": 4301,
  "dieron": 3000,
  "Ġicono": 21203,
  "Ġjuntar": 40829,
  "daje": 11006,
  "Ġsacu": 5654,
  "ĠarrebatÃ³": 39563,
  "Ġproponer": 24721,
  "Ġexilio": 12587,
  "gan": 905,
  "omista": 47449,
  "titu": 6512,
  "Ġopusieron": 46057,
  "Ġrpm": 27238,
  "chigan": 18984,
  "ĠOrd": 45668,
  "ĠquerrÃ¡": 31733,
  "Ġfrontera": 5452,
  "ĠShaw": 22237,
  "uz": 7567,
  "ĠRiv": 6486,
  "abajos": 45273,
  "ĠWatson": 22543,
  "Doug": 36604,
  "Ġproposiciones": 38370,
  "Ġsenci": 2804,
  "Ġpropusieron": 40721,
  "etto": 31485,
  "idurÃŃa": 14369,
  "Bro": 16743,
  "ĠsostÃ©n": 43894,
  "Ġafricanos": 23657,
  "Arriba": 43977,
  "Ġ254": 40691,
  "Ġparto": 18836,
  "ĠtÃŃo": 4703,
  "House": 45173,
  "1962": 18061,
  "Ġdespa": 4009,
  "ĠcontinÃºa": 10374,
  "usal": 9926,
  "FE": 29416,
  "Ġinformado": 17859,
  "cias": 1005,
  "didades": 34914,
  "iguiendo": 16331,
  "ĠRoth": 20297,
  "Ġenca": 6469,
  "Ġacudir": 14165,
  "ĠGabriel": 6023,
  "ĠF": 403,
  "Ġtejido": 14284,
  "ĠverÃŃan": 43835,
  "ĠFC": 3476,
  "Ġsexo": 6357,
  "Ġafortunadamente": 40084,
  "Ġsupuesta": 22239,
  "Estados": 17354,
  "bible": 34495,
  "Ġ15": 1039,
  "Bis": 42043,
  "ĠseÃ±ala": 13361,
  "sier": 49517,
  "Ġ1923": 11158,
  "ĠZh": 16930,
  "Ġclaro": 2909,
  "Ġinformaciones": 25657,
  "ĠDavies": 31366,
  "Ġpasa": 2358,
  "Ġcena": 6912,
  "romato": 47878,
  "bran": 24850,
  "ic": 311,
  "ĠseÃ±alaba": 23105,
  "Ġgestiones": 30562,
  "Ġ210": 24318,
  "Ġvisitas": 11776,
  "Ġmaldi": 39055,
  "ĠcaÃ±ones": 10751,
  "vivencia": 23729,
  "zaki": 35757,
  "adino": 31204,
  "Ġseductor": 35241,
  "-),": 23739,
  "Batman": 34455,
  "ĠRei": 41779,
  "Ġcompeticiones": 16399,
  "vial": 13601,
  "ĠSchiller": 45657,
  "Ġpreven": 25070,
  "Ġrevancha": 35315,
  "Ġquieren": 9448,
  "tenible": 30116,
  "Ġdesbord": 21205,
  "Ġat": 1923,
  "ĠPatronato": 35463,
  "Ġemprendido": 46211,
  "CuÃ¡n": 8116,
  "Ġincapaces": 25102,
  "Ġcambiara": 41679,
  "Ġ(...": 35584,
  "Ġbastantes": 20082,
  "ĠHuancayo": 42392,
  "Ġcomedor": 11460,
  "ĠGanadores": 39936,
  "ĠKarol": 49952,
  "Ġinvade": 44352,
  "Parte": 39814,
  "ĠMake": 38560,
  "Hal": 21056,
  "Ġeliminatorias": 35552,
  "ĠSocial": 4603,
  "63": 8376,
  "Ġdeseaban": 26085,
  "ĠVoc": 41275,
  "ĠImage": 16090,
  "ĠsatisfacciÃ³n": 10524,
  "Ġcitan": 49965,
  "terreno": 41978,
  "Ġseparadas": 17140,
  "Ġ04": 9186,
  "ĠPacto": 23397,
  "mid": 9969,
  "Ġexistente": 14227,
  "musitÃ³": 21488,
  "Ġmalos": 12451,
  "Ġcorto": 6515,
  "Ġiguales": 11719,
  "Ġdesaliento": 49779,
  "<|ax9|>": 9,
  "Ġrepresentadas": 33677,
  "jismo": 34856,
  "Ġacuario": 45982,
  "Ġcorrectas": 47775,
  "Ġecuaciones": 25168,
  "ĠVide": 25991,
  "quetbol": 35324,
  "Ġpeleando": 40866,
  "Ġtijeras": 38590,
  "Ġabrazaron": 44605,
  "Lo": 1847,
  "tagonista": 20945,
  "Ġurbanos": 20358,
  "ĠprisiÃ³n": 7294,
  "ĠdurarÃŃa": 38449,
  "Ġriguroso": 39724,
  "ĠtensÃ³": 34432,
  "Ġsobra": 18892,
  "Ġasol": 34900,
  "ĠcÃ³micos": 41984,
  "Art": 19240,
  "ĠelÃŃp": 30931,
  "Ġabarcar": 36792,
  "Ġdame": 36491,
  "ĠGabrie": 17219,
  "ĠHawÃ¡i": 24071,
  "ĠenseÃ±ado": 16594,
  "gregaciÃ³n": 13843,
  "ÃŃn": 605,
  "ĠseguirÃ¡n": 45006,
  "NT": 31064,
  "ĠSemana": 13330,
  "rillas": 15833,
  "illo": 1630,
  "Ã¶l": 25222,
  "ĠBiography": 43864,
  "ĠAlzÃ³": 39742,
  "Ġthis": 39031,
  "Dan": 10533,
  "Ġsegmentos": 26176,
  "eroy": 38205,
  "Ġpresupues": 43111,
  "Ġdenuncia": 18782,
  "Ġoportuno": 23202,
  "ĠalgodÃ³n": 15425,
  "ĠExpan": 48143,
  "anov": 33668,
  "Ġcitar": 22456,
  "enas": 1891,
  "ĠfÃ³siles": 17806,
  "Ġviol": 2889,
  "ĠSable": 40206,
  "ĠanarquÃŃa": 44210,
  "Ġmil": 1174,
  "kor": 24776,
  "Ġtropa": 19354,
  "ĠbendiciÃ³n": 22265,
  "queÃ³": 25176,
  "hus": 30804,
  "ĠCastel": 18722,
  "Ġdesdichada": 49239,
  "ĠCajamarca": 37654,
  "tileza": 34506,
  "ĠIrÃ¡n": 13027,
  "Ġconvocados": 49278,
  "Ġsuf": 2382,
  "Ġatacan": 34456,
  "ĠIslandia": 19820,
  "Ġ+'": 44142,
  "Ġobje": 1772,
  "ĠindicaciÃ³n": 27886,
  "dock": 44700,
  "Ġenemiga": 25171,
  "ĠgustarÃ¡": 42846,
  "tian": 21336,
  "ĠJorn": 42485,
  "ĠComo": 2083,
  "ĠMater": 34660,
  "Ġcuervo": 33644,
  "ĠTurÃŃn": 18416,
  "Ġspecies": 23801,
  "Ġchatar": 44173,
  "dades": 1324,
  "Ġromper": 8164,
  "ĠespÃŃas": 24896,
  "icerÃŃa": 29641,
  "Ġutilizaba": 16558,
  "curo": 21964,
  "ĠBohemia": 19385,
  "ĠadaptÃ³": 45734,
  "izarse": 27041,
  "ĠLegends": 49971,
  "Ġcitando": 38743,
  "Ġpracticaba": 42245,
  "Ġacecho": 41017,
  "ĠbaÃ±arse": 48524,
  "Ġmirarme": 22295,
  "Ġtenemos": 4238,
  "rimiento": 5559,
  "Ġrabioso": 48520,
  "ĠArti": 14739,
  "Interna": 43542,
  "Ġregist": 4198,
  "borne": 37166,
  "Ġvistos": 25625,
  "iz": 439,
  "ĠHiper": 45210,
  "ĠtornÃ³": 34556,
  "Ġmanual": 17656,
  "Nico": 27989,
  "Up": 34476,
  "gy": 9024,
  "Ġreservado": 18872,
  "ĠBanderas": 49285,
  "ÃŃficos": 12777,
  "Ġft": 39630,
  "Ġcreadora": 41572,
  "Ġlisas": 49414,
  "Ġcogido": 14705,
  "Ġexclam": 17299,
  "Ġvomitar": 30314,
  "ĠGuadalajara": 10152,
  "ĠNewport": 46469,
  "66": 6641,
  "Ġhaza": 19518,
  "crito": 7307,
  "ĠFull": 34471,
  "illan": 48710,
  "ient": 36149,
  "Ġecho": 26912,
  "enzuela": 29709,
  "Ġubic": 2113,
  "ĠDe": 655,
  "Ġprecioso": 16240,
  "ĠTaller": 17510,
  "Ġmovilidad": 26950,
  "gimen": 6275,
  "Ġalarmante": 43733,
  "Ġdependen": 26006,
  "ĠMana": 15863,
  "Ġsentadas": 31886,
  "ll": 921,
  "gulo": 7348,
  "oneso": 39632,
  "sul": 10990,
  "ĠValde": 22379,
  "ĠRho": 18238,
  "ĠMek": 40458,
  "ĠcaÃŃda": 6619,
  "Ġhospit": 23656,
  "ĠporteÃ±o": 43805,
  "ĠSchwarz": 44161,
  "ĠduraciÃ³n": 9871,
  "Ġpresiden": 6798,
  "puente": 46087,
  "terciÃ³": 48670,
  "remberg": 34707,
  "ĠSpecial": 14291,
  "Ġadquiriendo": 30984,
  "·": 125,
  "Mmm": 46261,
  "Ġenju": 22546,
  "Ġprinces": 35843,
  "Ġvirrey": 18098,
  "Ġhabit": 1964,
  "Ġestatus": 15787,
  "olÃ³gica": 5749,
  "ĠllamÃ³": 5134,
  "ĠmutaciÃ³n": 34626,
  "ci": 283,
  "Ġuniendo": 41977,
  "ĠvocaciÃ³n": 19891,
  "Robert": 20230,
  "Ġinferior": 5437,
  "ĠMitsu": 47859,
  "ĠImprenta": 30592,
  "Ġanchas": 22369,
  "peto": 26824,
  "ĠReno": 18413,
  "ĠKawasaki": 32399,
  "VE": 31660,
  "Ġrelaciona": 26376,
  "ĠDance": 17213,
  "Ġph": 38461,
  "Ġsensual": 24285,
  "Ġhele": 30851,
  "cados": 4128,
  "ĠdemocrÃ¡": 11995,
  "Ġaflo": 26825,
  "ĠsoÃ±ol": 48780,
  "Ġcubos": 35477,
  "atalla": 2849,
  "Ġcroata": 28277,
  "ĠReconquista": 41600,
  "Ġlanza": 8144,
  "ĠclÃŃnicas": 40738,
  "cico": 20998,
  "op": 4282,
  "ĠAsÃŃs": 31570,
  "ĠÃ¡n": 3670,
  "Ġenamorada": 16656,
  "Ġfrases": 11708,
  "ĠadvertÃŃ": 34866,
  "Ã©tera": 18237,
  "ĠirÃ³nica": 31841,
  "ĠgÃ©nero": 3209,
  "ĠFergus": 21965,
  "ĠAP": 18056,
  "Ġinsurre": 46532,
  "Ġperez": 23613,
  "ĠAR": 9445,
  "Ġpromediando": 37213,
  "Ġdonado": 42637,
  "ello": 3571,
  "ĠSti": 29848,
  "Ġnorteamericana": 20124,
  "ÃŃso": 8530,
  "allada": 47018,
  "ĠcÃ¡n": 7360,
  "amon": 32091,
  "ĠHerrero": 36205,
  "Sea": 32186,
  "Ġlocura": 9167,
  "ĠPrew": 49532,
  "Ġcubierto": 8501,
  "Ġdeliberada": 44534,
  "Ġencal": 50112,
  "ĠRebecca": 24600,
  "ĠMika": 25763,
  "ĠVicent": 45649,
  "Ġpintoresco": 50132,
  "Ġadolescencia": 19120,
  "ÃŃfera": 29259,
  "Ġcompartimento": 42792,
  "Sac": 21959,
  "Ġ409": 46869,
  "omÃ¡n": 39715,
  "Ġglucosa": 42423,
  "Ġfutbol": 16906,
  "Ġacun": 45406,
  "ĠEquipos": 11183,
  "ĠCoord": 30649,
  "ĠclÃŃnicos": 43435,
  "Ġentien": 13350,
  "Ġdibujando": 41469,
  "heimer": 27819,
  "ĠClarÃŃn": 43277,
  "Ġprepar": 2297,
  "terrÃ¡n": 5824,
  "Ġejercido": 31540,
  "Ġexh": 25479,
  "ĠPeruano": 37270,
  "Ġsagrada": 22329,
  "ĠEntrenador": 23046,
  "cimos": 25758,
  "ĠbÃ¡l": 35076,
  "ĠenterÃ³": 21524,
  "ĠresistÃŃa": 37937,
  "Ġperple": 14851,
  "Ġdominar": 17325,
  "Ġcontinuara": 39433,
  "Ġcrecer": 12694,
  "ĠJau": 43375,
  "Ġreparaciones": 30413,
  "Ġç": 32993,
  "ĠConrado": 46189,
  "Ġheroico": 38998,
  "Ġabrazar": 18015,
  "Ġarriesgar": 33221,
  "Ġcrust": 40213,
  "Ġdorada": 15539,
  "ĠChal": 19538,
  "âĢĵÂ¡": 18137,
  "Ġfronterizos": 48220,
  "Ġllamar": 5229,
  "ĠLibres": 35859,
  "ĠsoÃ±ado": 22663,
  "SP": 28679,
  "Ministerio": 48676,
  "Ġrever": 9069,
  "deros": 5144,
  "rug": 47881,
  "Ġostent": 26466,
  "ĠSiglo": 13243,
  "ĠPrÃ©": 46604,
  "ĠSpo": 27195,
  "ĠMiraba": 41536,
  "Ã¥": 13678,
  "ĠBWV": 49345,
  "ĠrÃŃ": 8839,
  "ĠJun": 3004,
  "Ġojeada": 28007,
  "Ġsumergido": 37817,
  "ĠPichincha": 50089,
  "ĠArmadas": 19301,
  "Ġexplicado": 20101,
  "Ġtranscur": 8896,
  "ĠLena": 25384,
  "ĠimÃ¡genes": 4951,
  "ĠespontÃ¡neo": 43353,
  "vador": 21523,
  "Ġalimento": 14596,
  "Ġcondestable": 49077,
  "Ġlucro": 25511,
  "erdo": 1471,
  "Ġaplicaba": 44363,
  "Ġdisca": 21918,
  "dure": 14274,
  "ĠPampa": 28762,
  "rill": 9417,
  "ĠGuaranÃŃ": 41141,
  "orth": 5001,
  "Ġdestacando": 19462,
  "ĠKeynes": 47476,
  "ĠAx": 19148,
  "ometra": 8709,
  "chas": 1309,
  "Ġfaroles": 48034,
  "Ġdelito": 13544,
  "Ě": 224,
  "ĠOlympique": 29599,
  "ĠaficiÃ³n": 19158,
  "Ġdocumentado": 31888,
  "\"Â¡": 15117,
  "ĠCura": 28578,
  "ĠCirco": 47355,
  "Ġ84": 7395,
  "Ġpresidencial": 13634,
  "ĠrealizarÃŃa": 47690,
  "ĠhincapiÃ©": 35810,
  "ÃĢ": 49671,
  "ĠColab": 43536,
  "ĠPauline": 37720,
  "zal": 21006,
  "Ġentienda": 46433,
  "ĠPF": 42501,
  "ĠDarius": 38467,
  "tradu": 43121,
  "Ġbuscarte": 39612,
  "Ġho": 1733,
  "Ġdefinidos": 32559,
  "ĠHa": 1761,
  "Ġnormas": 11144,
  "Ġmue": 4495,
  "Ġpasaron": 8546,
  "Ġ***": 6092,
  "aguez": 43474,
  "ĠPortugal": 5601,
  "Ġtic": 45553,
  "Ġconseguimos": 42008,
  "ĠLimÃ³n": 38056,
  "Ġasegura": 19107,
  "Ġ1520": 43880,
  "Ġreemplaz": 14784,
  "Ġneuro": 19172,
  "vier": 32823,
  "Ġmanifies": 42591,
  "Ġrodeadas": 47167,
  "ĠPalmira": 39667,
  "ĠAre": 9517,
  "ĠHuang": 42497,
  "Ġherejes": 49930,
  "ĠIvano": 32127,
  "rupo": 3746,
  "Jun": 24108,
  "Ġdejarlo": 15334,
  "Ġprotegido": 15827,
  "Ġcapacidades": 18146,
  "Ġquar": 40344,
  "Ġapreciado": 36747,
  "Ġfilamentos": 43381,
  "dÃŃan": 2477,
  "ĠFerrol": 33237,
  "ificÃ³": 19643,
  "ĠBuenos": 3172,
  "ĠarrodillÃ³": 22710,
  "der": 510,
  "ĠconcibiÃ³": 43963,
  "Ġposterior": 5516,
  "Ġalejarme": 46995,
  "ĠFerdinand": 28994,
  "ĠCaj": 28878,
  "ĠNashville": 39415,
  "ĠpermanecerÃŃa": 44497,
  "Ġiluminado": 20185,
  "ĠPrincess": 39975,
  "Ġsurcoreano": 50135,
  "chool": 46129,
  "Ġpegada": 25775,
  "isiÃ³n": 1690,
  "Ġpasaje": 15210,
  "dig": 14133,
  "Ġatorment": 16624,
  "Ġcheco": 28041,
  "Rick": 44584,
  "Ġborrador": 39609,
  "ĠWiz": 39339,
  "ĠmagnÃŃficos": 37737,
  "verdad": 6138,
  "ĠPolvoriento": 41703,
  "ĠdoctorÃ³": 41658,
  "Ġcompro": 5330,
  "Ġbastaba": 22697,
  "Ġsaludable": 30319,
  "Ġcayeron": 14815,
  "Ġaplaudi": 24524,
  "Ġbuce": 43801,
  "eps": 31854,
  "pal": 4615,
  "ĠElias": 35152,
  "ĠJusticia": 7966,
  "ĠDau": 49947,
  "ponentes": 49863,
  "Ġeta": 3477,
  "bot": 12905,
  "ĠGeneralitat": 46190,
  "garas": 48528,
  "Ġrecur": 4148,
  "Compr": 30289,
  "ĠpidiÃ©ndole": 36918,
  "Ġmitocon": 41472,
  "web": 44884,
  "Ġrango": 7710,
  "oby": 28494,
  "SC": 18514,
  "Bella": 40590,
  "Ġcaball": 3734,
  "guardia": 11449,
  "ĠNikolÃ¡i": 36308,
  "iger": 12747,
  "300": 18697,
  "ĠTari": 37357,
  "icaciÃ³n": 1504,
  "Ġrevisado": 43699,
  "Ġmonetario": 49938,
  "ĠEgy": 48277,
  "Ã¼hrer": 31409,
  "tir": 805,
  "Ġcontinuando": 33774,
  "ĠPrueba": 16264,
  "ĠVillalba": 38067,
  "ĠvÃŃctima": 8569,
  "Ġclientes": 9164,
  "posas": 24291,
  "ĠCreek": 20540,
  "Ġlucharon": 32828,
  "ĠCenter": 8220,
  "1984": 12472,
  "ĠSteven": 18838,
  "ĠlÃ¡minas": 29093,
  "ĠHong": 11983,
  "ĠhabrÃ¡n": 22059,
  "Ġsuc": 31205,
  "ifornia": 3853,
  "Ġt": 298,
  "Ġelector": 6720,
  "ĠbaÃ±os": 22536,
  "Ġsubfamilia": 23023,
  "Ġplantear": 36623,
  "ĠDub": 10687,
  "Aeropuerto": 28928,
  "Ġcolaborado": 28134,
  "ĠProyectos": 37743,
  "Ple": 43199,
  "Ġfueran": 6309,
  "Ġciega": 22186,
  "Ġestropeado": 45089,
  "ĠSegunda": 3548,
  "ĠcorrespondÃŃa": 17874,
  "ĠIst": 25546,
  "Ġgolondr": 44111,
  "Virgen": 31624,
  "on": 279,
  "ĠdeberÃŃamos": 19039,
  "ĠPatricia": 15451,
  "ĠDeut": 21816,
  "ĠrecostÃ³": 32734,
  "Ġconciertos": 9026,
  "Ġllevarse": 15982,
  "ĠSenador": 26087,
  "tolicismo": 23800,
  "ĠafirmÃ³": 11486,
  "paces": 23747,
  "Ġconvencido": 9741,
  "Ġcanas": 33621,
  "ĠSan": 711,
  "egil": 31823,
  "ĠViene": 48621,
  "Ġobligado": 7928,
  "Ġsoslayo": 39759,
  "Ġburbuja": 29818,
  "ĠNovelas": 46082,
  "ĠEurovisiÃ³n": 17561,
  "Ġfirmeza": 15052,
  "Ġafirma": 6234,
  "vedra": 24939,
  "Ġtrage": 13432,
  "occidental": 47786,
  "ĠMagazine": 18934,
  "ridi": 37724,
  "Ġconsagrado": 29788,
  "Ġpedi": 21038,
  "ĠconocerÃŃa": 46917,
  "enty": 48839,
  "ĠhÃºngaros": 37838,
  "Ġtriunfo": 8862,
  "Ã¶": 3124,
  "ĠraiÃ³n": 25445,
  "Ġmontes": 15677,
  "Ġoscila": 35690,
  "ĠCornelio": 38155,
  "hijo": 27918,
  "Ġgigantes": 8647,
  "TÃŃtulo": 23850,
  "ĠComunista": 11830,
  "rÃ¡s": 11128,
  "Ġesquema": 17154,
  "Ġsepultura": 31286,
  "Ġdescendieron": 38099,
  "Ġdese": 1757,
  "ĠespecÃŃmenes": 28234,
  "night": 29868,
  "light": 20519,
  "ĠJavi": 50164,
  "Ġacurru": 18751,
  "ĠmostrÃ¡ndose": 50095,
  "Ġasentado": 45031,
  "ĠacadÃ©micos": 19606,
  "ĠSistemas": 26329,
  "Ġigualmente": 9250,
  "Ġmataron": 22468,
  "Ġconcluyeron": 47434,
  "ĠTrÃ©": 34962,
  "ĠNino": 43202,
  "Ġcharco": 30753,
  "CÃ¡llate": 35697,
  "Ġarista": 47550,
  "Ġvuel": 1409,
  "Ġmomia": 45184,
  "Ġtemer": 13759,
  "Ju": 6863,
  "ĠSello": 33069,
  "Ġredondeadas": 49601,
  "ĠPalencia": 20365,
  "ĠIglesia": 3600,
  "imamente": 40796,
  "ĠBiblia": 14710,
  "Ġcantos": 23710,
  "Ġ187": 3494,
  "eos": 5998,
  "ĠelegÃŃa": 43138,
  "ĠInno": 25056,
  "ĠprÃ³": 3591,
  "Ġpillar": 42569,
  "If": 34153,
  "Bor": 23897,
  "Ġanfibio": 36978,
  "ust": 658,
  "ĠbaÃ±ado": 39297,
  "ĠAnder": 27928,
  "Ġinstitucionales": 46050,
  "Ġ1887": 17253,
  "cada": 3071,
  "rÃ©pito": 27505,
  "ĠsubterrÃ¡neos": 35159,
  "arÃ¡": 1967,
  "Ġacumulado": 27786,
  "ĠastronÃ³mico": 39397,
  "DoÃ±a": 33485,
  "onizaciÃ³n": 32888,
  "Ġ238": 39052,
  "ĠHino": 40569,
  "ĠexploraciÃ³n": 17627,
  "ancias": 3765,
  "Ġcometido": 11895,
  "Ġcharlando": 28450,
  "Ġmaldito": 13586,
  "Ġsida": 44755,
  "206": 47696,
  "ĠconcretÃ³": 47892,
  "ĠhÃ¡bito": 18049,
  "Ġ?": 12662,
  "ĠCord": 40499,
  "Ġ40": 2815,
  "Ġcenta": 21983,
  "Ġsellado": 42767,
  "fÃ³nico": 29092,
  "ĠsacudÃŃa": 36457,
  "ĠNash": 21559,
  "Ġllamado": 2509,
  "ĠningÃºn": 2486,
  "ĠAgra": 43397,
  "Ġhisp": 7070,
  "Ġtrompeta": 28872,
  "ĠHeras": 40890,
  "ÃŃgena": 32397,
  "Ġdesvel": 24194,
  "Ġsignos": 13497,
  "glish": 21265,
  "ĠMess": 23983,
  "load": 48041,
  "Sebas": 33368,
  "Ġ=": 353,
  "ĠGolpe": 38958,
  "Ġminu": 2187,
  "Ġye": 22748,
  "ĠseÃ±al": 2605,
  "Blue": 26678,
  "ãĥ": 7215,
  "Ġblindados": 33154,
  "atsu": 21625,
  "ecillos": 49233,
  "Ġaparezca": 36530,
  "ĠConnec": 21174,
  "chorros": 34410,
  "pecabezas": 34929,
  "Ġmedicinales": 27269,
  "line": 10902,
  "Ġcaras": 10901,
  "ĠFile": 11200,
  "Pap": 18436,
  "Ġtablero": 18555,
  "boc": 10655,
  "Ġsem": 5698,
  "ĠrespondÃŃa": 20871,
  "acate": 43682,
  "Ġpuer": 1153,
  "ĠPeterson": 34966,
  "ĠCompar": 21266,
  "Ġpolvor": 22796,
  "ĠCana": 37051,
  "Ġequipamiento": 27073,
  "Ġgastar": 27698,
  "Ġfrescas": 33035,
  "Ġfav": 28627,
  "Ġguapo": 16590,
  "ĠSos": 16716,
  "ĠpartÃŃa": 32510,
  "Ġllames": 48465,
  "less": 13926,
  "Ġpenumbra": 18442,
  "Ġcanad": 11756,
  "pasa": 33798,
  "Antoine": 38136,
  "ĠCOI": 44703,
  "Ġmercantil": 32883,
  "bara": 8622,
  "sela": 12644,
  "dr": 706,
  "ĠpequeÃ±o": 2441,
  "quiso": 31122,
  "adurÃŃa": 49374,
  "amente": 503,
  "CuÃ¡ntas": 27279,
  "Ġdona": 13679,
  "Ãºme": 6557,
  "rama": 24050,
  "Ġecharse": 25533,
  "ĠÎº": 42070,
  "Ġambiciones": 30307,
  "Ġetnias": 45510,
  "ĠConsuelo": 32021,
  "ĠhormigÃ³n": 21443,
  "Ġvuelto": 4795,
  "Ġolvidaba": 32791,
  "ĠGuth": 45627,
  "tors": 30381,
  "ĠhÃºmedas": 27311,
  "Ġveredi": 38511,
  "ĠYuri": 21463,
  "Ġagujer": 43524,
  "Ġgir": 5546,
  "ĠBulls": 35391,
  "bul": 24598,
  "path": 45587,
  "ĠjurÃŃdicos": 41550,
  "Ġgraduarse": 31147,
  "ĠpedirÃŃa": 46529,
  "Ġcalentar": 37126,
  "ĠCaba": 34590,
  "Ġtecn": 4907,
  "Â°": 2515,
  "Ġestan": 9408,
  "ĠVisconti": 46384,
  "Ġelegancia": 20884,
  "Ġmalet": 24063,
  "Ġconsumidor": 34737,
  "ĠfisonomÃŃa": 40515,
  "ĠLlama": 42436,
  "Ġdila": 18578,
  "Ġvagamente": 24129,
  "ĠprÃ³ximos": 15309,
  "ĠNazar": 17917,
  "Ġmanta": 15874,
  "ĠcorporaciÃ³n": 29266,
  "Ġllena": 5879,
  "ĠCooperativa": 43832,
  "Ġpobreza": 9791,
  "ÏĮ": 29532,
  "Ġmedall": 31493,
  "Ġcamis": 8033,
  "ĠMI": 26562,
  "engo": 21127,
  "Ġescla": 9243,
  "estan": 24365,
  "tum": 8331,
  "andy": 11649,
  "Ã³lica": 32162,
  "ctora": 9681,
  "ĠMeridional": 26182,
  "ĠBrice": 47168,
  "Llam": 25430,
  "ĠHoras": 25673,
  "Ġapes": 27599,
  "Ġportada": 11342,
  "ĠCobreloa": 45942,
  "ĠÃŃntima": 22931,
  "ĠHack": 37156,
  "Ġlatino": 11641,
  "ĠSuram": 36332,
  "eamente": 9577,
  "ĠreemplazÃ³": 26708,
  "Ġdam": 33927,
  "ĠZar": 16259,
  "ĠCada": 5336,
  "pina": 18182,
  "Ġfant": 11104,
  "ĠProfesional": 13828,
  "ĠDar": 4632,
  "ĠHay": 3417,
  "Ġzozob": 49728,
  "Ġocre": 46968,
  "ĠGijÃ³n": 18490,
  "ĠDesemp": 42870,
  "ĠSchneider": 32972,
  "ĠPolitÃ©cnica": 33099,
  "ĠtÃŃ": 14941,
  "tara": 5041,
  "ĠRoosevelt": 24614,
  "itat": 32755,
  "ĠDentro": 9494,
  "Ġcomplicadas": 41668,
  "Ġextendido": 17160,
  "ĠsobreviviÃ³": 25065,
  "ĠEntra": 31629,
  "Ġpintores": 13829,
  "Ġgigantesca": 24396,
  "ĠAvan": 42768,
  "irie": 49871,
  "Å¾": 16715,
  "iche": 13183,
  "Ġefecto": 3570,
  "mÃ©": 13803,
  "fac": 3954,
  "Ġagradezco": 22198,
  "ĠNAS": 39201,
  "ĠTomb": 44428,
  "ć": 205,
  "Ġestelares": 42545,
  "ĠalgÃºn": 2154,
  "estivales": 17916,
  "ĠhabÃŃamos": 9298,
  "pard": 26239,
  "brand": 31365,
  "ÛĮ": 47469,
  "ĠacompaÃ±an": 31746,
  "dob": 16714,
  "Ġtardado": 31121,
  "Cambi": 46810,
  "Ġmarzo": 1878,
  "ĠCassi": 38531,
  "ĠbotÃŃn": 23887,
  "Ġnadar": 23962,
  "tenÃŃa": 38696,
  "Ġdestinadas": 23648,
  "Final": 22153,
  "Ġmusicales": 6940,
  "Ġ209": 34290,
  "Ġsecular": 27720,
  "Ġelevado": 11891,
  "iedades": 10164,
  "ĠpresidiÃ³": 33413,
  "Ġovo": 41046,
  "Ġllevaron": 8261,
  "Ġampli": 6650,
  "ĠretornÃ³": 31916,
  "Ġfactura": 24728,
  "fice": 14171,
  "Ġintroducir": 14298,
  "Ġtocaba": 13589,
  "Ġoperando": 37721,
  "Ġinicios": 11117,
  "ĠEarth": 15185,
  "Ġpublicidad": 14338,
  "mun": 5873,
  "Ġdensas": 46755,
  "Ġsometidos": 26483,
  "Ġfot": 35685,
  "ĠTimes": 11424,
  "Ġlin": 6381,
  "Ġescondidas": 25969,
  "OK": 35393,
  "rigiÃ³": 19308,
  "Ġrecibir": 4707,
  "Ġbombilla": 47649,
  "lant": 15480,
  "Ġmarqueses": 45316,
  "iversario": 11189,
  "ĠIli": 38193,
  "Ã©z": 48630,
  "ĠOskar": 47959,
  "ĠHizo": 12935,
  "Ġdramas": 39254,
  "Ġlo": 396,
  "Ġbrillar": 27255,
  "Ġpreocuparse": 17321,
  "Ġhort": 40377,
  "Ġalcanzaba": 20383,
  "uevas": 13297,
  "Ġcomisario": 11630,
  "ĠBiz": 20174,
  "ĠPÃ©rez": 5369,
  "Ġtestigo": 12084,
  "Ġpizar": 24134,
  "urados": 27151,
  "heriff": 21432,
  "Ġcuatrocientos": 27338,
  "repuso": 9226,
  "Ġcortas": 16058,
  "enografÃŃa": 20330,
  "Ciudad": 15555,
  "douard": 32917,
  "Ġdesval": 41385,
  "desa": 5393,
  "Eran": 21618,
  "heit": 46836,
  "ĠMaya": 19163,
  "ĠbiologÃŃa": 22920,
  "ĠChaplin": 48481,
  "ĠpasiÃ³n": 7810,
  "ĠBarbar": 45257,
  "Ġdiscernir": 48889,
  "Ġsocorro": 27384,
  "Ġasombrado": 22321,
  "Ġhordas": 46354,
  "llamado": 42079,
  "Ġensan": 14386,
  "Ġreconozco": 30180,
  "Ġindicada": 39744,
  "tagon": 3361,
  "Ã¡ce": 7216,
  "lados": 7080,
  "ĠMiddle": 26279,
  "ĠMinneapolis": 45196,
  "Ġparticipante": 27668,
  "Ġservir": 6056,
  "Ġinquilinos": 45636,
  "Ġpic": 6789,
  "keting": 29903,
  "Ġpod": 6116,
  "Ġayuno": 49796,
  "ĠCretÃ¡cico": 32209,
  "ĠAS": 10051,
  "ĠcomparÃ³": 43460,
  "ĠÃħ": 38910,
  "Ġcambiaron": 22522,
  "ĠconsiderÃ³": 12059,
  "Ġvigilar": 21071,
  "ce": 476,
  "ĠMuseos": 34726,
  "ĠBenny": 31179,
  "ĠGarcia": 34947,
  "Ġingresa": 30716,
  "Ġjusticia": 7044,
  "Ġpropone": 15717,
  "trado": 13176,
  "ĠVIP": 49673,
  "Ġconsecutivo": 35874,
  "Ġabsoluta": 7813,
  "laje": 10117,
  "Ġflan": 11519,
  "DÃ©jame": 27483,
  "Ġreanudar": 39906,
  "mitiÃ³": 14400,
  "Ġguerrero": 13191,
  "ĠMig": 32490,
  "Ġdesenga": 39486,
  "ĠcanÃ³nigo": 37835,
  "ĠdÃ©jame": 26877,
  "Cuer": 43318,
  "Ġdirectos": 25320,
  "ĠCala": 16679,
  "ĠSH": 35407,
  "ĠclÃŃmax": 40085,
  "140": 37430,
  "ĠOlivares": 33107,
  "Ġsupuestas": 49566,
  "tasen": 33038,
  "itaria": 5769,
  "fÃ³": 26813,
  "ĠcirculaciÃ³n": 12963,
  "ĠdescargÃ³": 48346,
  "Ġantiguamente": 25203,
  "Ġfanfar": 40295,
  "ĠVac": 25715,
  "lazada": 48756,
  "ĠEscudo": 20467,
  "otas": 43815,
  "Ġguardado": 22772,
  "Ġdestruido": 14480,
  "Ġefig": 41331,
  "itaban": 14346,
  "Segunda": 20581,
  "Ġparalizada": 38053,
  "Ġluz": 1955,
  "ĠKorn": 41979,
  "Ã¡ndolo": 4386,
  "Ġajo": 30359,
  "ĠJeff": 11740,
  "ĠextensiÃ³n": 7186,
  "Ġmorales": 20968,
  "Ġestadios": 29419,
  "ĠFormÃ³": 30755,
  "Ġinmig": 10449,
  "tizado": 18922,
  "ĠRag": 30119,
  "Ġconsiguiente": 12838,
  "ĠTelefÃ³nica": 48430,
  "Ġvecinas": 25008,
  "capo": 47548,
  "ĠAvilÃ©s": 35196,
  "Ġguardam": 41883,
  "atl": 19786,
  "ĠGana": 24711,
  "ĠSpy": 36273,
  "Ġdenominados": 25219,
  "Ġinfructu": 35705,
  "Ġ1870": 15164,
  "ĠConcertaciÃ³n": 32048,
  "Ġperca": 12803,
  "plen": 42055,
  "ĠSIL": 46077,
  "Ġmode": 2758,
  "tamen": 16146,
  "ĠDetalles": 34913,
  "Ġparques": 20439,
  "Ġumbral": 9509,
  "bella": 34871,
  "ĠLituania": 21446,
  "Ġlimitados": 35548,
  "ĠMal": 2765,
  "yuki": 47234,
  "ĠURSS": 18388,
  "ĠcaÃ±a": 17149,
  "ĠinspirÃ³": 19186,
  "neos": 9253,
  "ĠfrenÃ©tica": 43539,
  "gumento": 44907,
  "ĠDE": 3923,
  "ĠDur": 11343,
  "Ġ737": 34578,
  "ĠNov": 11115,
  "adilla": 8391,
  "tieron": 4770,
  "ĠActor": 12094,
  "ĠIngrid": 25997,
  "Ġinj": 10035,
  "via": 2079,
  "entel": 37066,
  "Ġnulos": 35802,
  "grada": 9397,
  "abas": 4621,
  "Ġoriginaria": 17823,
  "ĠRojo": 11163,
  "xia": 22070,
  "Ġbaila": 35211,
  "Ġcualesquiera": 47604,
  "ĠNord": 23700,
  "ĠEstÃ©": 37961,
  "ĠExtre": 12246,
  "ĠTenis": 26208,
  "Aquella": 16305,
  "RN": 41704,
  "Ġnim": 46108,
  "Pre": 5643,
  "ĠRealizÃ³": 20422,
  "ĠPotosÃŃ": 18584,
  "ilia": 28890,
  "Ġmagn": 4435,
  "ĠperdiciÃ³n": 45003,
  "Ġfijaron": 50247,
  "lars": 41184,
  "Ġrespal": 11186,
  "viso": 44462,
  "ĠEugÃ¨ne": 40105,
  "Ġmundo": 1197,
  "Ġ322": 41663,
  "Ġgrieta": 29523,
  "Tel": 33411,
  "ĠXin": 36193,
  "ping": 24073,
  "ĠQuebec": 21545,
  "Ġsilvestres": 28014,
  "Ġresultaron": 19630,
  "ĠSra": 22997,
  "Dam": 45970,
  "ĠAlfaro": 29582,
  "ÅĽ": 31983,
  "ĠÂ¡Â¿": 38553,
  "ĠasesinÃ³": 35131,
  "ĠDay": 8250,
  "Ġfondo": 3123,
  "ĠBritÃ¡n": 11194,
  "Ġsirenas": 33827,
  "Ġ.": 2307,
  "Ġrepitiendo": 29905,
  "tector": 24380,
  "Ġutens": 30694,
  "/": 24,
  "ĠOrig": 10867,
  "Ġacre": 8743,
  "Ġimagina": 22097,
  "ĠGÃ©n": 10515,
  "Ġpatios": 30790,
  "Ã¡ntropo": 44234,
  "ĠsueÃ±a": 40514,
  "Ġesconde": 26200,
  "ĠecuaciÃ³n": 19276,
  "ĠTortosa": 43596,
  "Ġadministrado": 34965,
  "ĠCafÃ©": 23065,
  "1897": 40065,
  "ĠguÃŃas": 30087,
  "Ġsecarse": 47298,
  "14": 2288,
  "Texas": 42401,
  "Ġcasados": 22611,
  "iestas": 15651,
  "omo": 1282,
  "Ġguitarra": 6267,
  "tronomÃŃa": 18544,
  "Ãºe": 28537,
  "dedor": 18973,
  "ĠSchre": 47633,
  "cales": 12859,
  "Ġseres": 6471,
  "Ġfastidi": 23936,
  "uera": 12597,
  "ĠpÃ³stum": 43395,
  "ĠMauro": 26110,
  "ĠHeart": 16707,
  "Ġcriminales": 19914,
  "Ġeng": 11642,
  "ĠFajardo": 47290,
  "ĠSoy": 8496,
  "Bel": 18805,
  "WF": 28345,
  "pora": 7074,
  "ĠCleo": 21114,
  "wealth": 45611,
  "Ġemocionales": 39519,
  "interos": 39384,
  "Ġtrasera": 11718,
  "ĠibÃ©rico": 37249,
  "Ġterminando": 19390,
  "ĠWay": 8796,
  "Ġuniformes": 22787,
  "ĠÃ¡t": 14774,
  "tane": 30668,
  "Ġestimular": 37858,
  "park": 41109,
  "Ġcambia": 10987,
  "ARA": 35281,
  "Ġacumulada": 37850,
  "ĠPDF": 37035,
  "zzi": 16430,
  "ĠCalabria": 41077,
  "Ġduran": 46054,
  "ĠLiechtenstein": 46651,
  "hen": 6065,
  "Cap": 5593,
  "ĠIndepen": 5374,
  "ĠPacÃŃfico": 6158,
  "orneo": 3072,
  "ĠindÃŃgenas": 9242,
  "ĠinvitÃ³": 16207,
  "Ġmembranas": 47626,
  "Ġmugri": 47644,
  "Ġdisol": 26875,
  "B": 43,
  "Ġvols": 28402,
  "âĢ¦\".": 14104,
  "ĠDietrich": 47835,
  "Ġinto": 14872,
  "Ġpensaron": 33357,
  "Ġ52": 7659,
  "Piensa": 40851,
  "ot": 1093,
  "Ġasociada": 19920,
  "ĠdinÃ¡mica": 20286,
  "Ġllan": 7204,
  "1898": 37538,
  "taste": 26051,
  "Ġcaracteriza": 12723,
  "DespuÃ©s": 6704,
  "Ġensorde": 31882,
  "ĠContenido": 37230,
  "cona": 32042,
  "ĠShar": 15581,
  "Ġ68": 10635,
  "Ġtapices": 39659,
  "Ġantiguas": 8416,
  "ĠpagÃ³": 23338,
  "Ġcalidez": 31809,
  "Ġclara": 7874,
  "Ġinflig": 28077,
  "ĠZimmer": 34193,
  "bien": 36563,
  "ĠRegres": 16753,
  "Ġempleo": 9523,
  "Ġ349": 44373,
  "Lle": 13530,
  "calyp": 42889,
  "Ã¼sseldorf": 35809,
  "Ġmalhumorado": 45805,
  "Ġarque": 5508,
  "tÃ³nico": 37221,
  "Ġcomer": 1869,
  "ĠSchwartz": 41265,
  "Ã¨ne": 17190,
  "ĠcocciÃ³n": 46402,
  "Ġencontrase": 42689,
  "Ġespalda": 3792,
  "Ġinstitutriz": 48917,
  "Ġmolesta": 15343,
  "Ġmoviendo": 19726,
  "Ġpioneros": 30490,
  "ĠAntioquÃŃa": 34170,
  "ĠSummer": 17775,
  "ĠhacÃŃas": 49212,
  "Ġdoblado": 30869,
  "Ġligeramente": 7089,
  "Ġcelebridad": 42533,
  "ĠVent": 15189,
  "Ġorquestal": 36725,
  "Ġborracha": 44986,
  "Ġtropezar": 38089,
  "Ġfavorecido": 46631,
  "ĠPrepar": 23923,
  "olÃŃn": 25678,
  "Ġatur": 14089,
  "Ġvestimenta": 27016,
  "Hen": 16712,
  "Ġirra": 24586,
  "Hotel": 41693,
  "ĠAntonio": 2651,
  "ineo": 44767,
  "ĠPCE": 32305,
  "Ġsienes": 26922,
  "ividad": 18716,
  "ĠMarion": 28043,
  "ffi": 39730,
  "kÃ¶": 49219,
  "ĠBeckett": 39077,
  "Ġpotencias": 18328,
  "Ġresonaba": 48365,
  "ne": 1004,
  "ĠJuliÃ¡n": 11143,
  "Ġgozaba": 30783,
  "Ġfior": 36692,
  "Ġdelicadeza": 19519,
  "Ġanaranjado": 40671,
  "adon": 37389,
  "Ġfirme": 5398,
  "ung": 3475,
  "urias": 8171,
  "ĠRobbie": 31024,
  "Ġcabida": 38371,
  "Ġobvio": 16439,
  "Ġsesgo": 49578,
  "Ġaviso": 14688,
  "West": 25247,
  "Ã³podos": 49339,
  "urra": 41386,
  "ĠAntÃ¡r": 14762,
  "La": 813,
  "fÃŃn": 15383,
  "Wal": 19003,
  "ĠPensamiento": 47172,
  "ĠÂ¡": 916,
  "Ġsolistas": 44487,
  "clus": 37578,
  "uelve": 10018,
  "ĠDestacan": 38011,
  "Ejemp": 50175,
  "Ġmientras": 990,
  "ĠBob": 6151,
  "Ġtoma": 5558,
  "ĠGreen": 8448,
  "ÃŃmenes": 20148,
  "ĠUribe": 25667,
  "udi": 720,
  "ĠCampes": 38016,
  "Ġentreab": 21168,
  "yo": 1314,
  "Ins": 26382,
  "Ġfilme": 17830,
  "ĠDuran": 18974,
  "Ġermita": 14105,
  "ĠBonifacio": 40205,
  "Ġbrinda": 24969,
  "Ġalim": 3424,
  "Ġexclusivo": 21855,
  "usura": 11591,
  "Ġrespuestas": 12208,
  "Ġinquietudes": 37800,
  "ÃŃsticas": 2920,
  "Kon": 41843,
  "enson": 21386,
  "Ġromanticismo": 34650,
  "Ġinund": 14761,
  "ĠChacarita": 34807,
  "Ġvacante": 27836,
  "ĠMU": 44754,
  "\"âĢĶ.": 46592,
  "pides": 47107,
  "Ġfavorece": 38988,
  "ĠBarker": 49624,
  "Ġesclav": 7846,
  "Ġquieran": 28706,
  "Jim": 24111,
  "Ġgenerando": 31391,
  "ĠÃ©xitos": 11097,
  "Ġguardianes": 27779,
  "Ġpropor": 3523,
  "Ġtener": 1572,
  "Ġparlamentario": 26924,
  "ĠNagasaki": 49111,
  "Ã¼n": 11180,
  "bios": 2633,
  "Ġreptil": 45717,
  "nosis": 41931,
  "gentina": 1871,
  "Ġespecta": 15078,
  "Ġimperiales": 24528,
  "ratos": 45884,
  "ĠIch": 13133,
  "ote": 30434,
  "ĠElÃŃas": 18891,
  "Ġinterroga": 45063,
  "ĠPand": 34470,
  "ĠModelo": 19431,
  "ĠNegocios": 39274,
  "Ġatravesaba": 23636,
  "endes": 49290,
  "Ġcuid": 3504,
  "Ġgarro": 41838,
  "ĠCoahu": 28221,
  "ĠBad": 12422,
  "Ġportero": 15727,
  "ĠpreferirÃŃa": 33150,
  "Ġcortado": 16635,
  "Ġcelebridades": 40638,
  "ĠasentÃŃa": 50047,
  "ĠescrÃºpulos": 30788,
  "Ġrecor": 2943,
  "ĠHumanos": 16367,
  "nacido": 13337,
  "arina": 31295,
  "Ġpaseo": 8910,
  "Ġoportunidad": 4667,
  "Ġdismin": 6661,
  "onial": 13196,
  "53": 8591,
  "Ġvendedor": 23566,
  "ĠSW": 36280,
  "Ġinh": 26065,
  "Ġaccede": 21628,
  "ancas": 41075,
  "ĠdiscÃŃpulo": 20722,
  "ĠNantes": 35893,
  "ĠGui": 41377,
  "Ġhormigue": 41537,
  "hua": 7715,
  "tus": 3968,
  "Ã¤": 4218,
  "ĠSureste": 44811,
  "ĠÂ°": 7429,
  "Ġnacionalidad": 15722,
  "jarse": 11765,
  "ingos": 15930,
  "ĠHalf": 44746,
  "ĠDaget": 25552,
  "ĠMaz": 17210,
  "rata": 41621,
  "chae": 40668,
  "ÃŃes": 7767,
  "ĠCÃ³mo": 21527,
  "Ġproyectada": 34948,
  "34": 4926,
  "uestos": 6559,
  "inada": 4680,
  "Ġmisil": 27530,
  "Ġdesl": 5251,
  "04": 7640,
  "Ġinvenci": 33799,
  "ĠFrida": 44634,
  "ĠEconomic": 46537,
  "cosas": 22928,
  "iena": 7016,
  "jun": 17244,
  "ucristo": 19938,
  "ĠBoyacÃ¡": 28779,
  "ĠPeace": 33824,
  "ĠMarcus": 16350,
  "Ġafirmando": 23024,
  "ĠAlabama": 25974,
  "ĠPerdÃ³n": 32083,
  "Ãºsque": 6807,
  "Ġcorresponde": 8420,
  "ĠlÃº": 16262,
  "ĠDenominaciÃ³n": 44203,
  "umbra": 14356,
  "Bar": 6961,
  "Ġmarcharse": 11602,
  "Ġdescal": 14103,
  "ĠsucedÃŃa": 16886,
  "ĠpirÃ¡mides": 40275,
  ")',": 10369,
  "Ġayudaban": 48104,
  "Ã¡z": 10296,
  "eme": 5127,
  "ĠcesÃ³": 24382,
  "ĠniÃ±o": 3025,
  "Ġexhibi": 26686,
  "ĠAssocia": 10317,
  "ĠrevelÃ³": 13730,
  "ĠparÃ³": 16678,
  "live": 28614,
  "ĠMonsieur": 48774,
  "ĠfanerÃ³g": 37295,
  "Ġliderar": 44375,
  "mendi": 47857,
  "sieur": 23210,
  "Ġpredio": 40149,
  "nament": 49385,
  "ĠChance": 45504,
  "dientes": 4160,
  "ĠHind": 48580,
  "Ġsupervisar": 38507,
  "Ġalis": 30122,
  "ĠReven": 47193,
  "ĠDemo": 3472,
  "Ġatol": 36881,
  "ĠservÃŃa": 12385,
  "Ġheno": 40298,
  "UC": 10831,
  "1994": 9583,
  "Hablaba": 48033,
  "tives": 21125,
  "ĠElectron": 33954,
  "Ġcasera": 43157,
  "ĠrenovÃ³": 36900,
  "Ġecor": 49815,
  "encias": 756,
  "Ġcall": 12321,
  "Ġcla": 6502,
  "ĠCompositor": 48585,
  "ĠAlto": 8497,
  "ues": 515,
  "ĠParalÃŃmpicos": 25156,
  "Ġprejuicios": 25040,
  "gramos": 36438,
  "Ġmalvados": 41796,
  "Ġconmo": 9996,
  "Ġinglesas": 26221,
  "Ġagencias": 24964,
  "201": 1513,
  "ĠteÃ³rica": 27770,
  "ethe": 23359,
  "loma": 37917,
  "1953": 21412,
  "Ġprocesamiento": 24353,
  "Ã©ndome": 11422,
  "(": 17,
  "Ġlago": 5844,
  "ĠFont": 40003,
  "ides": 4774,
  "Ġpinta": 20921,
  "Ġembos": 19883,
  "Ġasignar": 49453,
  "ĠActividades": 29787,
  "ĠNadia": 29977,
  "Ġemitiendo": 38687,
  "Ġ440": 35189,
  "gular": 3170,
  "Ġnuev": 1882,
  "tter": 15897,
  "Ġdesan": 34951,
  "ĠFuturo": 38432,
  "ĠKonrad": 40384,
  "tÃ³r": 29734,
  "ĠlÃŃn": 1936,
  "Julio": 25999,
  "ĠSelecciÃ³n": 5822,
  "ĠvÃ©rtigo": 32306,
  "Af": 22540,
  "Ġejes": 24166,
  "ika": 7258,
  "Ġbasada": 8005,
  "Ġdepartamentos": 15378,
  "ĠDenver": 23646,
  "ĠEllo": 25072,
  "ĠPolicÃŃa": 10223,
  "Ġinaugurado": 14965,
  "Ġcelebraban": 35576,
  "Ġantrop": 16193,
  "Ġofendido": 25720,
  "tamentos": 26500,
  "ĠMoney": 30072,
  "fortun": 9846,
  "Ġ253": 36590,
  "yle": 35106,
  "Ġnovio": 11155,
  "ĠOrfeo": 41388,
  "Ġcompleja": 18516,
  "ĠMiami": 11651,
  "ĠBN": 45303,
  "Ġregia": 46279,
  "Ġquedes": 46498,
  "ĠDum": 23538,
  "ĠapelaciÃ³n": 41885,
  "Ġpodio": 28546,
  "Ġ06": 10023,
  "Ġfarol": 30163,
  "Ġlist": 10501,
  "nal": 5451,
  "Ay": 9112,
  "rupciÃ³n": 8334,
  "ĠGhost": 34867,
  "Ġignor": 5633,
  "Ġorganizadas": 31003,
  "doni": 50152,
  "Ġencargan": 47012,
  "Ġpudieron": 9343,
  "ĠgenÃ©tico": 30100,
  "ĠSep": 16513,
  "ĠCeb": 24887,
  "rosa": 6842,
  "ĠRecuerdo": 20165,
  "ĠsoviÃ©ticos": 16552,
  "PapÃ¡": 24223,
  "itudes": 17949,
  "aret": 37740,
  "Nuevo": 26113,
  "ĠLucha": 19783,
  "Ġgob": 1420,
  "Ġconcepciones": 48092,
  "Ġgradas": 36810,
  "Ġinflores": 26621,
  "estes": 21587,
  "ĠcontraposiciÃ³n": 41376,
  "ferente": 13618,
  "Ġmilicianos": 35657,
  "Ġvicepresidente": 14770,
  "ollos": 35022,
  "ĠBal": 3076,
  "Ġri": 1363,
  "Ġcontrola": 26862,
  "drÃŃas": 19476,
  "ĠRodrig": 43034,
  "ĠNed": 31943,
  "Ġhuevo": 17028,
  "iven": 45755,
  "Ġincongru": 48776,
  "ĠSch": 3087,
  "Ġsorpres": 4969,
  "VA": 15136,
  "Ġsucedieron": 31387,
  "ĠCÃ¡ncer": 49218,
  "Ġ365": 35202,
  "Ġderrocado": 48691,
  "Ġaldeas": 18940,
  "Ġindetermin": 36877,
  "yos": 3287,
  "igues": 46250,
  "ĠAllende": 23825,
  "Ġrellen": 24332,
  "Ġ338": 41424,
  "Ġconseguido": 6699,
  "Ġrespirando": 28664,
  "Ġtrance": 24152,
  "ĠJupe": 49307,
  "Ġresiduos": 22600,
  "chang": 38027,
  "ĠmatÃ³n": 48506,
  "ĠSeÃ±ora": 7611,
  "ĠnÃŃ": 22351,
  "ĠdesempeÃ±ar": 28452,
  "lin": 2349,
  "ĠBeyon": 45966,
  "ĠAUS": 25276,
  "tono": 19217,
  "ĠpsicologÃŃa": 17854,
  "ĠWes": 10827,
  "frica": 3682,
  "inaje": 12431,
  "piro": 5642,
  "reas": 3723,
  "Ġlimusina": 49168,
  "Ġcancelar": 44963,
  "Ġalejada": 25845,
  "Ġbor": 1942,
  "Ġamal": 49680,
  "Ġesencialmente": 20584,
  "Ġsuprimir": 35854,
  "gil": 15386,
  "Ġduraba": 42702,
  "Ġmalici": 45425,
  "Ġingles": 5079,
  "ĠaplicÃ³": 26604,
  "ĠiniciaciÃ³n": 36786,
  "Ġrealismo": 23734,
  "ĠinÃ©dita": 43764,
  "chadas": 14676,
  "director": 28604,
  "ĠanticipaciÃ³n": 40860,
  "ĠarqueolÃ³gicas": 32483,
  "Ġestrofas": 49600,
  "ĠMozambique": 31375,
  "ĠLoja": 36556,
  "Torre": 30964,
  "Jacques": 25139,
  "ĠGroen": 32308,
  "eografÃŃa": 17610,
  "Ġclase": 2810,
  "ĠSupremo": 14852,
  "Ġprefer": 5829,
  "Ġasim": 13104,
  "ĠHalloween": 44772,
  "ĠDemografÃŃa": 5263,
  "ĠAlcoy": 44408,
  "Ġdeslizaba": 28766,
  "aras": 9342,
  "Ġmsnm": 10897,
  "inquiriÃ³": 16216,
  "Ġdesenlace": 30265,
  "Ġaterrorizada": 42001,
  "ĠfÃ³s": 11798,
  "ĠKus": 36492,
  "crÃ¡": 5606,
  "ĠEsas": 22382,
  "Ġcostillas": 20388,
  "Ġdesnivel": 39513,
  "ĠHart": 13917,
  "ĠBow": 13604,
  "ĠWie": 44280,
  "ĠÃīsa": 32982,
  "ĠAug": 18611,
  "yac": 12706,
  "Ġinnov": 30363,
  "ĠCaz": 25739,
  "Elim": 48623,
  "ĠcrÃŃmenes": 13882,
  "ĠJP": 42306,
  "Ġ()": 4436,
  "Ġinfinitas": 38284,
  "Ġke": 42546,
  "Ġsuscep": 35714,
  "ĠbambÃº": 34651,
  "Mr": 21834,
  "Ġregular": 6068,
  "Ġconducir": 11464,
  "ancial": 36031,
  "Ġintercon": 39619,
  "cÃ³": 1294,
  "ĠPlymouth": 42777,
  "ĠPip": 22655,
  "tiemp": 17031,
  "ĠMemor": 14277,
  "ĠReading": 44834,
  "ĠApe": 30417,
  "ĠWarwick": 43117,
  "Ġtrom": 23642,
  "quita": 10946,
  "ĠVolcÃ¡n": 46369,
  "Ġhan": 1196,
  "hija": 41983,
  "ĠArtes": 5714,
  "Ġreliquia": 39251,
  "Ġdeterminada": 14793,
  "Ġpilotos": 13533,
  "Ġfuturas": 24215,
  "ĠRiga": 32763,
  "ÉĶ": 47164,
  "ĠNueve": 29327,
  "Ġrequi": 41577,
  "ĠdonaciÃ³n": 24639,
  "Under": 35238,
  "Ġacordarse": 44474,
  "cion": 419,
  "ĠKens": 39446,
  "Ġvoto": 11731,
  "ĠLuxemburgo": 19661,
  "ĠsacÃ³": 5989,
  "Ġdescribiendo": 35080,
  "Ġmudanza": 44025,
  "Ġranas": 39143,
  "ĠConoci": 20820,
  "Ġexquisita": 34037,
  "Ġesf": 3063,
  "Ġcomerciales": 8574,
  "Ġcoraje": 22060,
  "dado": 1473,
  "ĠGaribaldi": 50005,
  "field": 6295,
  "ĠHenares": 25253,
  "ĠmuÃ±": 6963,
  "Ġelecto": 18546,
  "Ġcontenido": 5792,
  "Ġpracticar": 18790,
  "clamÃ³": 3643,
  "Ġmerecen": 33380,
  "arl": 17036,
  "ËĲ": 23455,
  "Ġtrincheras": 33730,
  "Ġobligan": 44550,
  "luego": 40483,
  "Ġ28": 2350,
  "Ġreflexiones": 24156,
  "Ġcristianas": 25087,
  "ĠcampaÃ±as": 13751,
  "Ġ231": 37242,
  "ĠShiva": 48983,
  "ĠHumboldt": 34910,
  "ĠTul": 16795,
  "ĠpolicÃŃas": 12615,
  "ĠMunicip": 3934,
  "Ġgalardonada": 39135,
  "ĠTaxonomÃŃa": 11429,
  "Ġsina": 25251,
  "ĠimpulsÃ³": 22904,
  "Ġpatrocinado": 48326,
  "ĠSofÃŃa": 12356,
  "Ã³pez": 4668,
  "ĠVictor": 10476,
  "Åĳ": 37197,
  "Nada": 9108,
  "ĠconfÃŃa": 32573,
  "ĠTheory": 33855,
  "ĠcÃ©n": 22314,
  "ĠprosiguiÃ³": 18587,
  "wski": 12329,
  "Ġcarne": 4936,
  "ĠAndro": 25897,
  "ĠBas": 3624,
  "ĠGreenwich": 40794,
  "ĠtriunfÃ³": 47529,
  "ĠquÃŃmico": 18740,
  "ĠPanto": 47868,
  "Ġambicioso": 28981,
  "Ġexacto": 18378,
  "irÃ©": 22574,
  "Ġenfadado": 17792,
  "ĠLanza": 44318,
  "ienda": 6680,
  "ĠBrun": 14554,
  "Ġcampamentos": 32648,
  "ĠBale": 16009,
  "Ġapariencias": 31257,
  "ĠGÃ¼": 19626,
  "Ġinterpretaciones": 47911,
  "EstÃ¡is": 38023,
  "Ġprocuraba": 34601,
  "ĠsubÃŃ": 37279,
  "ĠgalÃ©s": 43684,
  "ĠDestaca": 29544,
  "Ġé": 33232,
  "ĠapÃ³": 44051,
  "Ġmintiendo": 35969,
  "Ġrituales": 21597,
  "acen": 12233,
  "ĠLaos": 35761,
  "Ġut": 25598,
  "Ġcodo": 16519,
  "ĠMLS": 45288,
  "Ġneu": 9433,
  "ĠoriginÃ³": 26501,
  "Ġdespierto": 19544,
  "Ġatropell": 27385,
  "ĠPolice": 47318,
  "Ġpatriotismo": 40760,
  "Ġ158": 31002,
  "Ġmaterno": 32541,
  "aciones": 2348,
  "ĠCabello": 39760,
  "tular": 37841,
  "ĠacadÃ©m": 7038,
  "Ġdesembarco": 25236,
  "ĠAstor": 30020,
  "ueso": 41174,
  "Ġpiel": 3138,
  "Como": 5243,
  "Ġensangr": 24978,
  "Ġ37": 4291,
  "ĠRav": 21540,
  "estado": 32903,
  "Ġpreliminar": 23032,
  "ĠRout": 47410,
  "ĠTambiÃ©n": 1783,
  "One": 19548,
  "stos": 8936,
  "cina": 2496,
  "800": 28171,
  "ĠReyn": 22318,
  "Ġimpuestos": 12065,
  "ĠmÃ¡rmol": 11600,
  "gando": 5198,
  "Ġpabellones": 42942,
  "Ġatletismo": 22849,
  "yendo": 6051,
  "Ġpeinado": 25756,
  "ĠBarry": 16969,
  "ĠAmarilla": 48794,
  "Ġtraslado": 16083,
  "ĠcolocÃ³": 8581,
  "Ġproducto": 6378,
  "CAA": 24253,
  "ĠDebes": 30890,
  "Ġdijeron": 12001,
  "ĠnaciÃ³n": 8812,
  "guard": 18818,
  "isaje": 38793,
  "Ġsanciones": 36281,
  "entro": 6315,
  "ĠcuÃ¡l": 8299,
  "ĠXXX": 18780,
  "ĠRÃ©my": 47536,
  "Ġencaje": 26522,
  "Ġhero": 11122,
  "Ġmach": 19541,
  "Ġescucharla": 40669,
  "Ġsignificado": 7785,
  "Ġonda": 15116,
  "ĠAudi": 9498,
  "Ġmis": 574,
  "aremos": 12540,
  "ĠexÃ³ticos": 47102,
  "ĠEfectos": 41623,
  "Ġfijo": 16076,
  "ĠclÃ¡sicos": 12995,
  "ĠGould": 36870,
  "ĠArte": 5570,
  "ĠmaÃŃz": 14364,
  "ĠacuÃ¡ticos": 41303,
  "ĠsistemÃ¡tico": 44829,
  "ĠAub": 33296,
  "Ġembal": 19007,
  "omi": 14486,
  "SofÃŃa": 45582,
  "ì": 178,
  "ĠInten": 24051,
  "ĠHerzegovina": 29546,
  "Ġtumbado": 23894,
  "Ġsujetos": 17997,
  "Ġocurra": 19862,
  "1989": 10890,
  "titud": 3096,
  "Ġinstintivamente": 32070,
  "Ġescrita": 6876,
  "ĠHeil": 48361,
  "Ġ-.": 37346,
  "ĠChris": 9358,
  "queta": 6066,
  "quer": 5885,
  "ĠfabricÃ³": 47454,
  "Pul": 45029,
  "Ġpublicada": 8316,
  "Ġcarrera": 2427,
  "lav": 2895,
  "Ġpreparaba": 20854,
  "etti": 12128,
  "Ġ444": 47908,
  "Ġtraducciones": 20031,
  "ĠcorrelaciÃ³n": 42576,
  "ĠorÃŃgenes": 12315,
  "Ġreportajes": 39963,
  "bulos": 29990,
  "ĠHarriet": 35121,
  "ĠEntidades": 43657,
  "ĠBus": 6384,
  "Ġdocente": 17473,
  "Ġ1818": 30086,
  "Ġ1815": 24208,
  "Ġemerger": 49060,
  "ords": 28761,
  "Ġatractivo": 11961,
  "ĠEjemplos": 24868,
  "Ġencerrada": 27965,
  "Ġasoma": 41636,
  "ĠAva": 31126,
  "ĠStrange": 42621,
  "riota": 18688,
  "Ġ116": 23304,
  "Ġaero": 19141,
  "Ġlimpieza": 16279,
  "Ġobjetiva": 32394,
  "Ġ1774": 43675,
  "Ġescapar": 4775,
  "alizador": 29760,
  "Aven": 48595,
  "Ġ1840": 19418,
  "Ġelegidos": 16081,
  "ky": 3379,
  "Ġwa": 28362,
  "ĠGregor": 34039,
  "primera": 34885,
  "Ć": 204,
  "ĠZagreb": 19928,
  "ering": 25140,
  "Ġaproximado": 32125,
  "Ġvenda": 24198,
  "Organiz": 48339,
  "Ġadministrativa": 13433,
  "Ġcelebrados": 31855,
  "trabajo": 48563,
  "Ġfoco": 23262,
  "ĠbrasileÃ±os": 36856,
  "Ġvac": 2797,
  "Ġferroviaria": 17680,
  "ĠBrothers": 23419,
  "ĠParty": 24356,
  "Ġdesparram": 36295,
  "trum": 26537,
  "Ġmatrimonio": 3893,
  "Ġsabor": 10554,
  "bour": 12262,
  "ĠcatÃ³licos": 12583,
  "Ġgrabado": 9157,
  "ĠComputer": 41233,
  "ĠCÃŃvico": 44639,
  "ĠRec": 2442,
  "ĠacÃ©r": 46464,
  "Ġincin": 37671,
  "mudas": 46833,
  "Ġcolaborando": 37813,
  "ĠresultarÃ¡": 43564,
  "Ġmeso": 32606,
  "Ġlarga": 3983,
  "ĠEspe": 30292,
  "ĠCategorÃŃa": 2125,
  "ĠMick": 26796,
  "vos": 4440,
  "hr": 7554,
  "ĠSpanish": 36884,
  "Ġhidro": 10025,
  "oniales": 27755,
  "Ġsubi": 43127,
  "Ġminerales": 17984,
  "Ġcorona": 6726,
  "Ġaparecieron": 12669,
  "Ġanar": 14781,
  "ĠconcluyÃ³": 15113,
  "icÃ³n": 36293,
  "Ġblan": 1546,
  "omor": 16369,
  "ĠnacÃŃ": 42972,
  "ĠRand": 24450,
  "Ġdebutar": 32181,
  "Ġabland": 45235,
  "Ġ950": 33919,
  "ĠLuci": 14567,
  "vados": 10030,
  "Ġprestig": 15818,
  "Ġortodo": 13931,
  "Ġcautivos": 39326,
  "TV": 6405,
  "Ġmesa": 2599,
  "ĠRobot": 39571,
  "Ġempresario": 12556,
  "Cent": 26080,
  "ĠEstu": 10779,
  "ĠContrarreloj": 32906,
  "Ġmirara": 40185,
  "entu": 16973,
  "ĠTracks": 34297,
  "ÃŃst": 1374,
  "Ġengendr": 31468,
  "ĠAntÃ¡rtico": 43679,
  "ĠAranjuez": 39062,
  "ĠLinares": 23200,
  "ĠTucker": 30137,
  "Ġ1920": 7443,
  "83": 8244,
  "Fern": 19133,
  "Ġpunk": 19347,
  "Ġvolado": 42026,
  "ĠTransilvania": 46448,
  "Ġlav": 10900,
  "vora": 17124,
  "Ġlanzado": 5541,
  "Ġatemor": 30525,
  "Ġcobertura": 16049,
  "Ġvivir": 3511,
  "Andre": 31478,
  "Hemos": 20342,
  "ĠCyprin": 33584,
  "ĠcÃ©lebre": 14144,
  "ĠresbalÃ³": 40767,
  "zol": 47063,
  "ĠacercÃ³": 4197,
  "ĠParroquias": 48637,
  "Ġpeligrosas": 26293,
  "ĠapartÃ¡ndose": 46236,
  "ĠBota": 35276,
  "Ġgritado": 45896,
  "Ġleal": 10569,
  "Naik": 37374,
  "Ġbab": 38015,
  "aranÃŃ": 25434,
  "dÃ©ric": 36372,
  "Ġtuya": 14354,
  "Ġcriticada": 44322,
  "Ġinunda": 22639,
  "Ġconstituido": 20654,
  "Ġflu": 5018,
  "ecer": 2432,
  "reste": 8691,
  "ĠparÃ©n": 28693,
  "Cant": 29011,
  "Ġesquizofrenia": 48927,
  "ĠMotors": 20369,
  "ĠRey": 3389,
  "ĠSingles": 12215,
  "Ġlight": 49007,
  "Carl": 41105,
  "Ġaccidental": 21035,
  "unidad": 3184,
  "poel": 40387,
  "Ġcompil": 37223,
  "Maria": 34011,
  "ÃŃculas": 8563,
  "Ġcompr": 2911,
  "ĠSole": 42237,
  "Ġcelebrado": 13393,
  "ĠBog": 38050,
  "eciente": 29718,
  "ĠnecesitÃ³": 34142,
  "Ġenigma": 28853,
  "Ġambulante": 47208,
  "icosis": 45601,
  "ĠInstru": 16864,
  "ĠCÃ³": 11501,
  "hner": 49841,
  "Ġtraidores": 36294,
  "darse": 22423,
  "ĠsatÃ©lites": 22310,
  "Ġsale": 7112,
  "Ġpresentada": 19147,
  "curriÃ³": 40123,
  "Ġ1855": 22290,
  "Ġyacimientos": 23017,
  "Ġseda": 10360,
  "ĠrebeldÃŃa": 34548,
  "Ġleen": 48643,
  "ĠLynch": 25150,
  "Ġguardaban": 34681,
  "ĠdegradaciÃ³n": 31211,
  "ĠBoletÃŃn": 35829,
  "Ã©ra": 47886,
  "ingÃ¼": 8213,
  "ĠAustria": 6013,
  "Mag": 18235,
  "ĠseÃ±orita": 5617,
  "ecera": 41718,
  "Ġrepiten": 45809,
  "ĠcompaÃ±": 1745,
  "Ġanunciado": 18121,
  "tenango": 38730,
  "fibios": 28649,
  "ĠMach": 15532,
  "Ġrellenar": 49755,
  "nin": 35215,
  "ardÃ³": 43788,
  "Ġinsistente": 42507,
  "Ġencu": 10489,
  "ĠSalinas": 20612,
  "ĠtÃ³": 15867,
  "Ġpagos": 25570,
  "ĠNeumann": 43913,
  "ĠLibro": 11800,
  "ĠcortÃ©smente": 44698,
  "ĠRusia": 4266,
  "Ġpienso": 8215,
  "ĠDrÃ¡cula": 47351,
  "icali": 44875,
  "Ġdesconocido": 8292,
  "ĠMilagro": 49114,
  "quivir": 39230,
  "Ġ88": 11346,
  "Ġcomprendida": 40872,
  "Ġcuriosos": 27367,
  "Ġmora": 40224,
  "ĠSochi": 38319,
  "ĠMet": 13291,
  "ĠfestÃŃn": 41939,
  "400": 20359,
  "Ġinquieta": 23093,
  "Ġcuestiones": 11020,
  "Ġdejamos": 24327,
  "ĠJacob": 10778,
  "Ġdelegados": 26526,
  "Ġridi": 37598,
  "ĠintrÃ©": 41278,
  "ĠBranco": 49038,
  "anÃŃa": 5812,
  "Ġsindica": 15668,
  "burn": 19956,
  "Ġsoy": 2871,
  "Ġlog": 6269,
  "ision": 15418,
  "Datos": 45701,
  "conocido": 22012,
  "hotep": 40959,
  "inv": 32170,
  "ensibles": 32348,
  "ĠAbdel": 40835,
  "ĠColombo": 43537,
  "ĠArmas": 19497,
  "Ġdeshecho": 47426,
  "rero": 1544,
  "Ġ430": 35500,
  "Ġbah": 41466,
  "Ġpisos": 12381,
  "Ġ'": 356,
  "ĠÏĢ": 41034,
  "Ġgela": 40981,
  "ĠKama": 46044,
  "ĠRosen": 21435,
  "ĠExcel": 20776,
  "Ġviendo": 8333,
  "Ġpalos": 21838,
  "Rem": 27596,
  "dica": 4135,
  "Ġelabor": 8080,
  "Obra": 42393,
  "Ġinternacionales": 7440,
  "ĠTlaxcala": 35633,
  "104": 34827,
  "didas": 4485,
  "Ġentidad": 10558,
  "cega": 40309,
  "ciones": 494,
  "ĠBB": 32816,
  "Libre": 43507,
  "Ġrecopi": 13223,
  "ĠMai": 33780,
  "Ġpenosa": 42278,
  "ĠAlcal": 7861,
  "Ġazu": 17833,
  "Gra": 5312,
  "Ġremix": 28511,
  "Ġtrivial": 35039,
  "Ġesperanzas": 13868,
  "ĠIban": 38620,
  "Ġesbelto": 45539,
  "SeÃ±or": 10072,
  "Ġdestacada": 18833,
  "ĠReden": 49615,
  "ĠJulien": 30989,
  "Cine": 32461,
  "ĠComunidades": 34150,
  "ĠHiroshima": 38002,
  "Ġatribuida": 37951,
  "Ġforzos": 41719,
  "Ġturistas": 15881,
  "cience": 37394,
  "ĠMr": 8536,
  "Ġcump": 15739,
  "ĠpÃ¡jaro": 14072,
  "Ġyacimiento": 21779,
  "Ġnevadas": 46031,
  "isia": 49008,
  "cana": 16359,
  "ĠTomo": 17672,
  "Ġpotestad": 45889,
  "buce": 20807,
  "ĠDeath": 19709,
  "Ġcomenzaron": 6839,
  "ĠBlanche": 34993,
  "Ġracional": 13625,
  "Ġplacas": 18081,
  "Ġproporcion": 5608,
  "observÃ³": 20848,
  "right": 10303,
  "Ã§Ã£o": 20493,
  "ĠbiogrÃ¡fico": 43532,
  "ĠRash": 36940,
  "Ġexca": 9973,
  "Connor": 31061,
  "ana": 544,
  "ĠMillie": 43429,
  "ĠconocÃŃan": 15936,
  "32": 5125,
  "Ġmaquillaje": 22150,
  "Ãºsica": 6298,
  "dis": 4448,
  "ĠVillanueva": 18363,
  "ĠCR": 20030,
  "encia": 598,
  "ĠreducÃŃa": 43150,
  "oc": 787,
  "ebio": 27553,
  "ĠScott": 9151,
  "Ġvete": 26026,
  "Ġpermita": 23377,
  "Ġvillan": 49538,
  "Ġpreocuparme": 42307,
  "ĠDecano": 47836,
  "ÃŃan": 530,
  "uro": 1111,
  "700": 34791,
  "Ġpoem": 38923,
  "ĠCapilla": 17099,
  "Ġvariados": 27808,
  "aman": 13285,
  "ĠPhilipp": 30281,
  "ĠFalk": 44743,
  "Over": 40337,
  "foque": 49512,
  "ult": 7185,
  "ĠtrepÃ³": 45947,
  "Ġsanguin": 40526,
  "ĠTNA": 39390,
  "Ãīse": 42449,
  "ÃŃfico": 3146,
  "N": 55,
  "Ġfranquismo": 26563,
  "ĠHarvey": 24400,
  "Alguna": 28429,
  "ĠBryant": 48509,
  "ĠLost": 26008,
  "copio": 15158,
  "ÃŃv": 10940,
  "Ġpreocupa": 15979,
  "ĠesfÃ©rica": 50165,
  "ĠClint": 48742,
  "ĠMa": 918,
  "izabeth": 9123,
  "ĠVÃ©lez": 16998,
  "ĠMonica": 37770,
  "Ġantisemitismo": 49040,
  "Ġmenstru": 47758,
  "Ġfumando": 32566,
  "Ġfalsedad": 43337,
  "onen": 47540,
  "ĠtransmisiÃ³n": 10964,
  "Ġahorrar": 27071,
  "ĠProvincias": 26514,
  "Ġagreg": 11603,
  "Ġavisado": 36073,
  "ĠBrasile": 22073,
  "ernador": 11524,
  "vaciones": 12019,
  "Ġanciano": 8582,
  "plano": 26054,
  "ĠTristÃ¡n": 35983,
  "Ġconmovido": 37327,
  "Ġintercambio": 12375,
  "uble": 13853,
  "ĠderrumbÃ³": 32865,
  "Persona": 37342,
  "ates": 5929,
  "ĠEt": 17387,
  "Ġceb": 13832,
  "ĠGalilea": 48441,
  "Ġpri": 1598,
  "qi": 41392,
  "Ġdivinidades": 49349,
  "ĠGutiÃ©rrez": 10752,
  "ĠPerfect": 49794,
  "Ġdisim": 9638,
  "Ġabrumadora": 41589,
  "Ġ135": 22137,
  "Ġdependiendo": 15583,
  "Ġindicador": 34957,
  "ĠEstÃ¡n": 15048,
  "Ġmovimientos": 5773,
  "ĠprecauciÃ³n": 22893,
  "Ġincrementado": 48128,
  "ĠAnzo": 36055,
  "Mar": 3190,
  "Ġproduce": 6126,
  "ĠGales": 13093,
  "Palacio": 33328,
  "ivo": 3384,
  "Ġprodig": 22976,
  "Ġenamora": 29304,
  "ĠNave": 26649,
  "Â²": 2308,
  "ĠexposiciÃ³n": 7889,
  "Ġmantenida": 40139,
  "Ġorigina": 34528,
  "Ġpositivas": 22731,
  "Ġactivar": 38704,
  "ĠnÃºm": 1609,
  "Ġpror": 49211,
  "Ġ149": 29811,
  "Ġseguimiento": 21916,
  "ĠpÃ¡gs": 14894,
  "ĠSaudita": 29796,
  "Ġsep": 13215,
  "Ġprotocol": 30459,
  "ĠsinfonÃŃa": 38633,
  "ĠmÃºltiples": 8369,
  "Ġllamarlo": 28304,
  "ĠhundÃŃa": 34083,
  "ĠMilton": 26531,
  "ĠayudarÃ¡": 32503,
  "gaciÃ³n": 2231,
  "ĠText": 47855,
  "Ġtemo": 11926,
  "Ġdividieron": 46338,
  "Ġdesasosiego": 44231,
  "ĠID": 31373,
  "Ġfachadas": 27386,
  "Ġdesesti": 39587,
  "Ãºj": 32904,
  "Ġchilenas": 45590,
  "ĠCagli": 49494,
  "Ġseguidos": 22356,
  "ĠPorque": 6575,
  "Ġcentrocampista": 25585,
  "ĠCork": 46878,
  "ĠWhen": 48548,
  "ĠResistencia": 22410,
  "ĠReconoci": 17636,
  "cidente": 3902,
  "Ġculto": 9569,
  "Ġcente": 22615,
  "ĠdiplomÃ¡ticas": 23429,
  "Ġrompe": 18059,
  "ĠScien": 7048,
  "ĠCouncil": 36024,
  "Ġapareci": 18346,
  "Ġasedio": 16804,
  "Ġdecirnos": 37887,
  "ĠAgencia": 17543,
  "Ġbuscaban": 21378,
  "ĠpÃºblicamente": 18333,
  "Ġhongos": 26770,
  "Ġcumple": 9880,
  "tay": 29604,
  "ĠHep": 41942,
  "Ġcanteras": 49270,
  "cionar": 4041,
  "ĠfilosÃ³ficas": 38097,
  "ĠatmÃ³sfera": 10672,
  "ĠFree": 17745,
  "ĠPopular": 5860,
  "inas": 1407,
  "ĠPRO": 24865,
  "ĠArzobispo": 27964,
  "Ġsingulares": 36547,
  "Ġatendiendo": 32958,
  "ĠEntretanto": 34758,
  "I": 50,
  "sted": 6611,
  "ĠPie": 7407,
  "iches": 36927,
  "ĠGeb": 49793,
  "igiÃ³": 37182,
  "rik": 8103,
  "ambu": 36543,
  "imi": 19369,
  "Ġmalo": 7635,
  "Ġplasma": 28089,
  "Ġup": 27274,
  "ĠTime": 11219,
  "Ġ451": 45814,
  "Ġyear": 38130,
  "Ġsuperfici": 2820,
  "ÅĤ": 11399,
  "ĠLudov": 42739,
  "ĠevacuaciÃ³n": 31298,
  "ĠFavor": 31808,
  "ologÃŃas": 12041,
  "Ġcaprich": 14276,
  "ĠTulio": 50064,
  "wy": 31038,
  "Ġduro": 6819,
  "ÑģÐºÐ¸Ð¹": 48482,
  "amor": 4441,
  "ĠMinutos": 48992,
  "Ġanaliza": 36178,
  "Ġdi": 367,
  "Ġcapara": 38264,
  "ĠAlcalde": 15439,
  "ĠtirÃ³n": 22431,
  "ĠCherry": 48462,
  "Ġgenios": 47910,
  "ĠdeberÃ¡": 18440,
  "Ġmonarca": 11441,
  "ĠEchever": 34392,
  "Euphorbia": 39591,
  "ĠAlde": 39285,
  "ĠGreatest": 45179,
  "ĠcrÃ¡neo": 13216,
  "ĠDictionary": 33959,
  "ĠvaloraciÃ³n": 29711,
  "Ġchoque": 17848,
  "veres": 26858,
  "ĠfÃŃsico": 7828,
  "Ġtuberculos": 30559,
  "ĠcolaborÃ³": 17104,
  "Ġfrancos": 15441,
  "Ġpaseando": 29071,
  "Ġdesasos": 37452,
  "ĠMalvinas": 20511,
  "ĠCarrillo": 19931,
  "tuvo": 1895,
  "Ġpercatarse": 42859,
  "ĠConan": 37650,
  "ĠseÃ±ales": 9684,
  "ĠexportaciÃ³n": 23379,
  "ĠNina": 26367,
  "ĠmeditaciÃ³n": 25033,
  "Ġencerraba": 46191,
  "Ġbecas": 42738,
  "Ġentender": 4683,
  "Ġtengo": 2406,
  "izaciones": 16395,
  "ÃŁ": 15182,
  "Ġreflejan": 30576,
  "Ġolvidando": 41106,
  "Ġjura": 13903,
  "Ġrocas": 9231,
  "ĠfÃ¡bricas": 17581,
  "ĠfÃ©rtil": 30819,
  "Ġmutil": 33251,
  "ĠNine": 48048,
  "Ġmoder": 2989,
  "ĠÃ³mnibus": 48387,
  "ĠElegido": 47408,
  "crip": 8809,
  "ĠlÃ¡p": 17669,
  "Ġcerrando": 19083,
  "Kent": 50141,
  "Ġcontaban": 18832,
  "Ġempates": 44466,
  "Ġescudero": 49651,
  "Ġfundad": 5152,
  "Ġcartu": 14744,
  "Ġeterna": 17381,
  "Ġsoca": 38358,
  "Ġbanca": 25003,
  "Ġsilb": 26426,
  "Ġregimientos": 33260,
  "Ġarresto": 24791,
  "obo": 7982,
  "porro": 42419,
  "ĠsusurrÃ³": 15086,
  "esÃŃ": 35420,
  "Ġaudible": 44312,
  "Ġinaugura": 31573,
  "ĠManchu": 42803,
  "Ġmestizo": 48171,
  "ĠBorb": 48821,
  "Ġclon": 41195,
  "ĠIA": 27049,
  "Ġwho": 50085,
  "tuando": 31187,
  "Ġcometiendo": 49768,
  "ĠGiuseppe": 19400,
  "Ġein": 43233,
  "tzal": 30201,
  "Ġmarx": 18327,
  "ĠsÃ©pti": 11134,
  "mografÃŃa": 9092,
  "ĠMontaÃ±as": 31686,
  "Ġgritando": 14963,
  "ĠGalerÃŃa": 9467,
  "Ġinmediatamente": 5404,
  "ĠâĢĶ\"": 25006,
  "Here": 41339,
  "Ġsagradas": 38196,
  "vidas": 19674,
  "oso": 892,
  "ĠasociÃ³": 41350,
  "Ġronco": 40599,
  "ida": 518,
  "'\"": 5623,
  "Ġemigrar": 38077,
  "Ġcero": 11750,
  "onazos": 38542,
  "Ġficticia": 30658,
  "ĠRM": 48686,
  "Ġtrescientos": 18763,
  "ĠKnox": 41750,
  "atro": 1086,
  "Ġcinemato": 12687,
  "ĠsanguÃŃneo": 38524,
  "Ġlanzadas": 39352,
  "Ġdesembo": 20749,
  "Ġhex": 30252,
  "ĠFirm": 46792,
  "entamente": 4389,
  "Ġacercar": 15299,
  "ĠMÃ©rito": 17483,
  "ĠLatina": 11078,
  "ĠEstuve": 40423,
  "Ġansiedad": 13204,
  "Ġbolsillos": 16274,
  "huac": 33424,
  "Ġpolis": 36173,
  "ĠAlejandra": 24092,
  "ison": 6716,
  "Obras": 27149,
  "Ġunidas": 21712,
  "|'": 48869,
  "ĠSÃ³crates": 35885,
  "fato": 19573,
  "lato": 38891,
  "ĠReuniÃ³n": 34391,
  "ebre": 29815,
  "oyle": 12399,
  "ĠquÃŃmicos": 19166,
  "aru": 27442,
  "Ġpage": 42145,
  "Ġsantuario": 15822,
  "Ġesperaba": 4338,
  "ĠCuricÃ³": 45188,
  "ĠinstÃ³": 38963,
  "abando": 25293,
  "Jimmy": 45284,
  "ĠRumanÃŃa": 26453,
  "Ġen": 289,
  "usse": 15221,
  "ĠsabÃŃan": 10587,
  "athan": 8754,
  "ray": 6854,
  "Ġ0": 814,
  "hoven": 18000,
  "Ġhija": 2453,
  "ĠVenezol": 29023,
  "ĠGu": 1194,
  "Ãºs": 1089,
  "Ġturbo": 35359,
  "Ġbosques": 7612,
  "Ġescal": 2899,
  "ĠSandy": 27929,
  "Ġbajan": 39802,
  "Ġcompuerta": 47785,
  "Ġremedi": 32926,
  "Ġpartituras": 48601,
  "ĠForestal": 48267,
  "Ġfrenar": 29506,
  "ĠSaf": 35560,
  "ĠLay": 27203,
  "ĠCondado": 9985,
  "ĠpartÃŃculas": 14088,
  "ĠmonÃ³": 22757,
  "ĠSey": 24427,
  "Ġconquistar": 18344,
  "ĠExe": 37843,
  "Ġinmobiliaria": 45470,
  "Ġalianza": 10849,
  "ĠCorrales": 44981,
  "tanto": 14738,
  "ham": 2598,
  "Ġguitar": 4412,
  "Ġsujeta": 20200,
  "tanol": 48031,
  "ĠXim": 37158,
  "Ġdeseado": 15598,
  "Ġanalista": 39812,
  "Ġdesesperados": 35800,
  "Ġdescubriendo": 29152,
  "Ġlayer": 46133,
  "excepto": 35903,
  "urbios": 17575,
  "Ġlibreta": 27901,
  "flores": 30527,
  "Ġponerla": 36070,
  "Ġruido": 5166,
  "Ġplebe": 27949,
  "Ġsirven": 15258,
  "Ġmanzanas": 19854,
  "Ġmecha": 41442,
  "fonÃŃa": 14328,
  "ĠJes": 3266,
  "sugiriÃ³": 25810,
  "Ĺ": 255,
  "Ġexaminaba": 44791,
  "Ġderr": 35862,
  "Ġocuparon": 23498,
  "ĠFrom": 21321,
  "ĠpÃ©r": 5209,
  "Ġ1883": 18540,
  "ĠHubiera": 34747,
  "Ġinad": 26840,
  "Ġexponen": 46699,
  "ĠmÃ¡ximas": 32174,
  "Ġdoctrina": 14350,
  "ĠfÃŃs": 3371,
  "ĠConf": 13567,
  "ĠVie": 5305,
  "ieren": 8867,
  "Ġfilmes": 31843,
  "Ġcantando": 16377,
  "ĠWolfgang": 24996,
  "Ġincorpora": 17275,
  "Sky": 44247,
  "Ġpreparados": 19658,
  "Ġpregunte": 44837,
  "Ġtardar": 33498,
  "ĠTurn": 42567,
  "Ġmostraban": 19225,
  "Ġfundado": 8122,
  "ĠreaccionÃ³": 26203,
  "Ġprenda": 21369,
  "Ġpreparativos": 20726,
  "Ġfre": 2903,
  "cciÃ³n": 707,
  "Ġechada": 39696,
  "Ġwaterpolo": 49984,
  "ĠPeor": 44784,
  "Ġministerio": 18341,
  "ĠfijaciÃ³n": 39114,
  "oya": 7206,
  "ĠmisiÃ³n": 5205,
  "Ġimplacable": 21585,
  "Ġnavarro": 48443,
  "geo": 14017,
  "ĠÃį": 10692,
  "Rio": 39323,
  "Ġiniciarse": 42741,
  "urm": 4574,
  "Ġbarba": 11416,
  "Ġdemolido": 47207,
  "ĠNayar": 41863,
  "Dor": 27377,
  "phin": 43586,
  "Ġunidos": 15576,
  "ĠPers": 6362,
  "ĠtamaÃ±o": 4285,
  "Ġbandidos": 24015,
  "ĠRaoden": 42383,
  "ĠKun": 17386,
  "Ġcolombiano": 12870,
  "ĠGimÃ©nez": 32939,
  "Ġmovieron": 35038,
  "ĠKom": 20295,
  "ĠPasto": 35163,
  "ĠtÃŃtulos": 6969,
  "ĠNep": 10893,
  "âĢĶ.": 681,
  "Ġlimpias": 31313,
  "Ġescen": 14115,
  "ames": 3227,
  "ĠRobin": 10509,
  "ĠDud": 24331,
  "ĠMaipÃº": 39841,
  "ĠClo": 12302,
  "ĠconsistÃŃa": 12984,
  "Medalla": 43550,
  "Ġamedr": 45597,
  "ben": 11727,
  "Ġregente": 21280,
  "ĠKuz": 40667,
  "Ġsicili": 35167,
  "ĠDebajo": 36013,
  "Ġguardia": 6682,
  "ennes": 18132,
  "++": 42610,
  "sovia": 16638,
  "Ġenaj": 41020,
  "Ġcant": 2137,
  "ĠÃ³": 4028,
  "ĠSois": 44539,
  "siempre": 36384,
  "ĠviÃ±e": 32389,
  "ĠLeah": 39896,
  "Ġorientadas": 48090,
  "Ġhomosexual": 26657,
  "ĠSinga": 17763,
  "Ġdejando": 5133,
  "Ġtenga": 6582,
  "Ġprestigiosos": 46638,
  "ĠYucatÃ¡n": 14122,
  "Ġpares": 14982,
  "Ġges": 3161,
  "ĠAnÃŃbal": 24872,
  "deando": 21054,
  "ĠTrabajadores": 21298,
  "ĠFerguson": 27664,
  "à¤": 14275,
  "decÃŃa": 13705,
  "ĠGis": 32281,
  "adada": 49882,
  "Ġapuntan": 40583,
  "labas": 35825,
  "jarme": 32367,
  "ĠGenesis": 49929,
  "Ġsalvo": 5684,
  "Ġdemuestra": 14753,
  "ĠDash": 42295,
  "Ġvigilando": 29777,
  "dap": 4304,
  "Ġ235": 32941,
  "ĠconspiraciÃ³n": 19037,
  "Ġperjudi": 17065,
  "ĠOlga": 16169,
  "ĠdefinÃŃa": 48957,
  "Ġdescubriera": 44336,
  "Ġroman": 29632,
  "jaros": 38494,
  "Ġllevarle": 33595,
  "Ġdevas": 17447,
  "QuizÃ¡s": 32221,
  "ĠpodrÃ¡": 8856,
  "Ġavanz": 3426,
  "ocer": 42923,
  "Ġencuentran": 3645,
  "Ġvendida": 32321,
  "Ġ103": 19309,
  "Ġacredi": 14531,
  "ĠSegundo": 11856,
  "ĠenseÃ±anza": 10377,
  "May": 18380,
  "Ġsobrevive": 38519,
  "Ġandadura": 48405,
  "Bad": 30454,
  "ĠÐľ": 36970,
  "ment": 1635,
  "iudadela": 23984,
  "ĠGates": 41635,
  "Ġcontraste": 14381,
  "kar": 10123,
  "ĠEh": 27854,
  "ÃŃcula": 6484,
  "Ġinterac": 9530,
  "Ġ300": 7414,
  "Č": 210,
  "ĠMonde": 45280,
  "Espera": 20394,
  "ĠSam": 3438,
  "ĠFl": 10157,
  "Sen": 27643,
  "06": 6782,
  "Ġenfrentamientos": 20842,
  "ĠConse": 3791,
  "Ġsubasta": 30881,
  "001": 47331,
  "Ġpatin": 48844,
  "Ġcostumb": 9680,
  "Ġrealizar": 4594,
  "Ġnudo": 14801,
  "ĠLear": 34642,
  "ĠDirectorio": 36286,
  "Ġdarle": 5160,
  "ĠTrajano": 49750,
  "ĠAndrÃ©s": 6444,
  "terson": 33666,
  "ĠOb": 2417,
  "zadas": 13617,
  "ĠVel": 9077,
  "ĠAyud": 48153,
  "Ġ*#": 21586,
  "Ġben": 6006,
  "ĠStad": 9552,
  "Ġtocador": 35517,
  "ĠPueblos": 31393,
  "ĠCateg": 49082,
  "Ġsa": 1665,
  "Ġucran": 16073,
  "Ġgra": 1406,
  "Ġ303": 38754,
  "Ġalteza": 43938,
  "berg": 4117,
  "Ġinquie": 5728,
  "ĠsuponÃŃan": 48886,
  "ĠporciÃ³n": 18008,
  "ĠexhibiciÃ³n": 18070,
  "Ġrock": 5225,
  "Ġduelo": 15347,
  "imos": 2905,
  "Ġhallazgo": 23311,
  "ĠrehusÃ³": 49343,
  "vac": 31252,
  "Ġidi": 5308,
  "ĠmorÃŃa": 22299,
  "idge": 34422,
  "Ġatravesando": 22204,
  "Ġdieron": 6468,
  "girl": 41582,
  "Ste": 12408,
  "ax": 12948,
  "Ġmarcada": 18767,
  "ĠÃģrbitro": 44592,
  "Quiere": 17222,
  "Ano": 27980,
  "ĠprÃ©stamo": 16512,
  "ĠLÃ¡": 42636,
  "Ġdicta": 33210,
  "quillo": 13572,
  "ĠpenÃºlti": 30826,
  "oceno": 28075,
  "Ġpacif": 47433,
  "Ġpan": 3342,
  "Ġsignificativas": 30473,
  "ĠHilar": 45014,
  "Ġcientos": 9917,
  "or": 282,
  "elt": 20010,
  "itanes": 17410,
  "late": 21030,
  "Ġpelaje": 28239,
  "ĠÃĵscar": 11207,
  "lini": 41825,
  "Ġultravioleta": 47368,
  "Harry": 22424,
  "Ġraz": 4380,
  "ĠReb": 26343,
  "ĠRudy": 33902,
  "Ġenfoques": 44074,
  "Ġconstantemente": 11481,
  "Ġcontraria": 20318,
  "ÃŃrgenes": 27024,
  "ÃŃnate": 39902,
  "ĠFraga": 40955,
  "Ġilustrados": 46139,
  "Ġparabrisas": 41121,
  "gicos": 20620,
  "Ġaleg": 21538,
  "ĠexpectaciÃ³n": 36613,
  "ĠveÃŃan": 10373,
  "ĠBallesteros": 46461,
  "Ġasturiano": 34123,
  "Ġcarru": 14203,
  "ĠCi": 21789,
  "Ġpresento": 37148,
  "1868": 45005,
  "Ġpasadas": 22463,
  "Ġconlleva": 36257,
  "Ġagrada": 40650,
  "ĠIndependencia": 11050,
  "ĠMaga": 48962,
  "Ġuniforme": 9470,
  "Ã¡neo": 10645,
  "MarÃŃa": 12112,
  "cien": 3114,
  "Ġhaz": 12921,
  "Ġperiodo": 5025,
  "Ġcomensales": 40903,
  "Ġpantal": 5692,
  "ĠencontrarÃŃan": 46447,
  "Ġdesprende": 31928,
  "ĠJunto": 9525,
  "waffe": 34850,
  "reso": 24726,
  "inado": 2261,
  "Ġbase": 2760,
  "Ġhablando": 4924,
  "ĠAN": 13494,
  "ĠWalter": 9710,
  "ĠUbicaciÃ³n": 20496,
  "tia": 2242,
  "ĠAÃ±os": 11301,
  "ĠAlicia": 13593,
  "lop": 14590,
  "tiliz": 1444,
  "Ġpulsa": 48750,
  "ą": 203,
  "Ġdata": 12715,
  "ĠBoul": 33025,
  "ĠVega": 10075,
  "smouth": 45842,
  "Ġautora": 17001,
  "Ġprivi": 9173,
  "Ġanal": 11306,
  "Ġasust": 5395,
  "yn": 2958,
  "Ġgradu": 6432,
  "ĠFinales": 32154,
  "Ġinterpretan": 46786,
  "ĠKenn": 9499,
  "ĠcomprometiÃ³": 35666,
  "icht": 24925,
  "ø": 190,
  "ete": 12930,
  "Ġbin": 16017,
  "ĠSecretarÃŃa": 13996,
  "Amy": 50023,
  "Ġ1880": 14876,
  "Ġpulver": 44843,
  "ĠTelevisa": 28954,
  "Ġintelectual": 10868,
  "ibil": 23171,
  "Gu": 6475,
  "Ġresponden": 36643,
  "Ġflamencos": 42625,
  "Ġrestaur": 31278,
  "Ġvictoriana": 48620,
  "Ġatrever": 24178,
  "ĠAlarcÃ³n": 28052,
  "ĠgÃ³": 11515,
  "Ġocultarse": 35479,
  "hand": 41745,
  "ĠBri": 3575,
  "pista": 8940,
  "Ġapartada": 41002,
  "Ã³rmulas": 26910,
  "Ġvietnamita": 50205,
  "lando": 6073,
  "icus": 14200,
  "ois": 30900,
  "Ġprotectora": 31296,
  "atened": 38019,
  "ĠSullivan": 28092,
  "Ġcapturado": 16420,
  "tuosos": 25800,
  "ĠShelby": 37555,
  "Ġquerido": 5367,
  "Ġcomenzar": 10574,
  "Ġenmude": 38004,
  "ĠartÃŃ": 41129,
  "Ġangos": 45818,
  "tras": 619,
  "sternaciÃ³n": 41080,
  "Ġdiploma": 22499,
  "Ġdirigidas": 18534,
  "Ġcorsarios": 43354,
  "Ġdescansan": 42867,
  "tadora": 10397,
  "ÃŃa": 317,
  "Ġalcanzaban": 44387,
  "ÃŃtico": 28588,
  "ĠHurtado": 26290,
  "Ġremol": 14583,
  "ĠLoc": 11716,
  "ĠTennessee": 23790,
  "Ġsuponer": 13826,
  "Ġaho": 10044,
  "ĠMejorposiciÃ³n": 41946,
  "ĠrevÃ³lveres": 46574,
  "ardÃŃa": 18130,
  "Ġelocuente": 41911,
  "Ġprestigioso": 30227,
  "Ġmunicipio": 2097,
  "ĠPandora": 43795,
  "Ġtotales": 31131,
  "Ġpade": 11246,
  "Ġventanillas": 46260,
  "stas": 2618,
  "Ġsufragio": 28591,
  "Ġamigo": 2603,
  "ĠThÃ©": 22744,
  "Ġtratar": 5983,
  "Ġdicen": 7882,
  "ĠTormenta": 32263,
  "Ġmadrina": 42064,
  "Ġdetective": 14999,
  "Ã¡neos": 31931,
  "ĠOrtega": 15163,
  "Cu": 1870,
  "wain": 39021,
  "Ġdescubrimos": 48689,
  "ÃŃs": 755,
  "ĠNaciones": 8158,
  "Ġpedag": 32711,
  "Ġincompleta": 40200,
  "ĠUm": 42997,
  "siÃ³n": 1353,
  "Ġ1987": 4532,
  "pus": 6658,
  "ĠRez": 42156,
  "Ġmolestar": 21954,
  "Ġadu": 15873,
  "Ġpasase": 42573,
  "locu": 18841,
  "ĠShÅį": 31970,
  "advirtiÃ³": 33977,
  "ĠIf": 35651,
  "Ġto": 444,
  "ĠreÃŃan": 31426,
  "ĠlocalizaciÃ³n": 18076,
  "Ġvanidad": 28443,
  "ĠMaj": 29121,
  "Ġveces": 1459,
  "Ġcualquiera": 6336,
  "astres": 26854,
  "ĠSoul": 24645,
  "ĠAdministra": 25199,
  "02": 7976,
  "ÃŃb": 5887,
  "ĠdevoluciÃ³n": 44846,
  "ĠerigiÃ³": 35149,
  "Ġdescar": 4747,
  "gn": 1965,
  "ĠWayne": 13655,
  "ĠOccidental": 9728,
  "Sun": 29680,
  "Ġsuficiente": 3344,
  "CA": 3808,
  "Ġwidth": 22626,
  "ĠBÃ¡rbara": 17334,
  "Ġextraordinarias": 34967,
  "ĠSingapur": 19470,
  "Ġpostura": 11607,
  "ĠpsicolÃ³gicos": 42910,
  "Ġgim": 16173,
  "DES": 47665,
  "Ġtir": 3737,
  "vertido": 24125,
  "Ġfragatas": 49395,
  "ribu": 1841,
  "Ġ21": 2148,
  "Ġgemelo": 32011,
  "ĠArthur": 11417,
  "ĠdiÃ¡logos": 28233,
  "anÃ¡polis": 42624,
  "Ġinmediata": 14868,
  "DON": 47268,
  "ĠDirectores": 46302,
  "sus": 5317,
  "Ġdelincuente": 37283,
  "ĠdesatÃ³": 30757,
  "ĠLaw": 10355,
  "Ġejemplo": 2315,
  "Ġtier": 36188,
  "ĠquizÃ¡": 3967,
  "Â´": 13989,
  "ĠTre": 5497,
  "Ġamarillento": 29657,
  "ĠResta": 16942,
  "Ġatras": 28768,
  "Ġnudos": 23313,
  "Ġnu": 4439,
  "Ġatravesada": 45038,
  "Â": 136,
  "AmÃ©rica": 28818,
  "ĠTropical": 33003,
  "Ġcruzada": 22274,
  "ĠShannon": 29402,
  "Ġsonoras": 27258,
  "FS": 27665,
  "anidad": 47965,
  "ĠResultados": 8651,
  "John": 11004,
  "genes": 3132,
  "Ġentreg": 40674,
  "ĠrealizaciÃ³n": 11930,
  "ĠpolÃŃgono": 43511,
  "Ġespacio": 3094,
  "Ġentregarse": 33982,
  "ĠManrique": 30583,
  "las": 540,
  "ay": 507,
  "ĠKGB": 39228,
  "ĠPaper": 48460,
  "Ġdormido": 9536,
  "Ġtaxi": 13496,
  "Ġexplicarlo": 43399,
  "wis": 10811,
  "tag": 2295,
  "Ġportugu": 7794,
  "'": 16,
  "Ġ154": 31009,
  "ĠbaÃ±era": 25223,
  "Ġfundam": 5923,
  "ĠconfirmaciÃ³n": 25782,
  "incha": 45382,
  "ĠChristopher": 16218,
  "Ġ1908": 12648,
  "ury": 10702,
  "ĠDocumentos": 48614,
  "Ġgama": 17006,
  "Ġclub": 2547,
  "Ġentume": 40594,
  "Ġdefensor": 17101,
  "GÃ©n": 30425,
  "Ġexil": 15631,
  "ĠHabrÃ¡": 39039,
  "ĠdivisiÃ³n": 4893,
  "134": 46986,
  "Ġliqui": 23336,
  "Ġrastros": 31667,
  "Ġningun": 2086,
  "ĠnecrÃ³polis": 37388,
  "afirmÃ³": 14297,
  "ĠTina": 23604,
  "Ġhumede": 25107,
  "ĠÐļ": 33821,
  "casting": 39344,
  "Ġescul": 4959,
  "Ġmando": 4387,
  "ĠExplor": 30526,
  "Ġovillo": 50079,
  "Ġopositor": 36923,
  "ĠÃĳ": 21767,
  "iesen": 26694,
  "ĠJÃ¡": 34268,
  "ĠCora": 12946,
  "ĠGladys": 39628,
  "Ġana": 33603,
  "ĠmÃ¡gicos": 32029,
  "ĠBlas": 12805,
  "Ġimplic": 8758,
  "Ġdetal": 3656,
  "Ġeleg": 2346,
  "Ġperdon": 8998,
  "Ġescru": 16454,
  "west": 31687,
  "ĠBoulevard": 37132,
  "Ġcomunista": 14397,
  "Ġfallos": 32899,
  "ĠKramer": 46192,
  "Ġarco": 7151,
  "pher": 31679,
  "ĠTendremos": 47570,
  "Ġdual": 35533,
  "ĠInformÃ¡tica": 34571,
  "Ġ370": 33588,
  "Ġcer": 807,
  "1978": 14204,
  "ĠÐº": 47571,
  "Mierda": 27814,
  "Ġindependiente": 6452,
  "ĠEco": 31539,
  "cota": 21367,
  "comb": 25286,
  "Ġrepor": 8102,
  "ĠperegrinaciÃ³n": 31456,
  "Ben": 14755,
  "Ġveran": 48828,
  "kos": 18941,
  "Ġmira": 6001,
  "ĠCola": 35729,
  "ĠDu": 1550,
  "ĠLitoral": 40239,
  "Ġpresentando": 23120,
  "Ġalejar": 17489,
  "Ġvuelven": 14273,
  "ĠVerlag": 29536,
  "otti": 37085,
  "ĠWeekly": 37851,
  "ĠcaÃ±as": 35290,
  "Ġevidencia": 10469,
  "lavo": 31372,
  "Ġlanzados": 26801,
  "ĠcaptÃ³": 33169,
  "ĠCircle": 42594,
  "Ġasistieron": 28865,
  "<|ax3|>": 3,
  "ĠEmpresas": 29174,
  "Ġandina": 42600,
  "ĠMarruecos": 13192,
  "Ġluminoso": 27948,
  "ĠBrid": 26983,
  "ĠRecibe": 43262,
  "ĠpanaderÃŃa": 47907,
  "Ġol": 1508,
  "mÃ©tica": 31671,
  "Ġllanos": 49608,
  "Ġori": 31481,
  "ĠdÃ©cadas": 8296,
  "ĠShirley": 38602,
  "Ġjueves": 16497,
  "onga": 25374,
  "Ġespole": 45002,
  "Ġenemigas": 26940,
  "ival": 19527,
  "Ġordenadas": 31835,
  "ĠPach": 16063,
  "ĠWil": 3805,
  "Ġgais": 48726,
  "ĠBarnes": 34114,
  "ĠÃĵpera": 22993,
  "brecht": 43285,
  "Ġrefle": 3180,
  "Ġocupados": 21181,
  "ĠZorro": 33447,
  "Ġculminante": 47774,
  "Ġmuertos": 5563,
  "Ġresplande": 19124,
  "Ġasustados": 36394,
  "Ġconformada": 25406,
  "Ġvas": 2726,
  "ĠPriz": 42487,
  "ĠJoseph": 7902,
  "Ġcomport": 6286,
  "Ġoctogonal": 49731,
  "SV": 42012,
  "ĠLedesma": 37266,
  "Ġpermanecer": 8592,
  "ĠpropÃ³sito": 6114,
  "ĠGraves": 45930,
  "ĠRecoleta": 45471,
  "Ġrangos": 45995,
  "Ġsupi": 32019,
  "ĠStark": 24062,
  "ĠKa": 3228,
  "ĠTenemos": 12823,
  "ITA": 41200,
  "ĠMago": 40732,
  "Ġpropios": 5227,
  "Ġinclinado": 21447,
  "Ġhemisferio": 27711,
  "ĠQuevedo": 30445,
  "ĠPL": 25995,
  "tambiÃ©n": 10757,
  "Ġsolucionar": 24214,
  "tat": 27781,
  "ĠStudios": 18316,
  "Ġarmario": 12761,
  "ĠSalvada": 28555,
  "Ġselvas": 28992,
  "ĠPlatÃ³n": 24931,
  "Ġnomenclatura": 42241,
  "ckland": 32738,
  "\"âĢ¦": 28175,
  "ĠHomenaje": 35672,
  "ĠGastÃ³n": 31524,
  "pat": 25343,
  "ph": 1706,
  "blast": 20444,
  "Ġdescendientes": 13588,
  "ĠaconsejÃ³": 31080,
  "Ġindicando": 22398,
  "ĠavisÃ³": 43119,
  "Ġcastigado": 34675,
  "ĠLanda": 35032,
  "ĠGrandes": 13144,
  "ĠStuart": 19645,
  "ĠDoce": 36253,
  "tercera": 47491,
  "Ġnervioso": 10275,
  "ĠBenfica": 34804,
  "Ġcha": 5882,
  "laza": 21200,
  "Plata": 44151,
  "ĠSaturno": 29782,
  "ĠRumble": 46113,
  "Ġnobleza": 12577,
  "Ġmala": 5101,
  "Ġretener": 20843,
  "ĠmÃ³dulos": 35807,
  "ĠCondes": 32961,
  "Ġdesayuno": 13327,
  "Ġamarill": 17633,
  "Ġprotagonistas": 14582,
  "Ġ1832": 26363,
  "Ġsuicidas": 49141,
  "Ġfuriosa": 18264,
  "Ġmosa": 22047,
  "Ġmotor": 5038,
  "Sport": 30353,
  "Ġtradiciones": 13997,
  "ĠEnlaces": 1164,
  "Ġcitada": 24017,
  "ĠSombra": 37734,
  "tie": 11445,
  "ridge": 6991,
  "Ġinventor": 27625,
  "Ġpreguntaba": 12043,
  "ĠDarÃŃo": 19950,
  "84": 7965,
  "iria": 41169,
  "Consejo": 39993,
  "ĠvolvÃŃ": 11729,
  "ĠTas": 16174,
  "Ġperfectamente": 6457,
  "ĠChir": 37792,
  "ĠMud": 43386,
  "ĠTercera": 9573,
  "Ġperteneciente": 5727,
  "ulina": 46973,
  "ĠGaceta": 41591,
  "Ġavanzan": 44112,
  "fuera": 41736,
  "ĠdiseÃ±ados": 25980,
  "esper": 4320,
  "ë": 177,
  "ĠluchÃ³": 18635,
  "Ġvariable": 15027,
  "wang": 31782,
  "Ġmateria": 6977,
  "Ġabiertamente": 17146,
  "ruro": 40579,
  "Ġtitu": 3220,
  "ocas": 21566,
  "yoffs": 21768,
  "RAC": 22151,
  "ĠsÃºbita": 26919,
  "Ġordenados": 38280,
  "ĠToday": 39238,
  "Ġmacro": 24923,
  "alÃŃmpicos": 20244,
  "Ġpedre": 45574,
  "orean": 49408,
  "ĠGustave": 41254,
  "amanga": 28775,
  "IG": 15388,
  "Ġora": 32666,
  "ĠsolÃŃan": 16185,
  "Ġforastero": 40355,
  "ĠRaymond": 19067,
  "Ġnegando": 37047,
  "ĠConcejales": 34107,
  "ĠincorporÃ¡ndose": 43526,
  "ĠAndrÃ©i": 44865,
  "Ġaportado": 48364,
  "Ġdesnudos": 17261,
  "Ġdirigiendo": 23285,
  "ietta": 39106,
  "Ġgrano": 16599,
  "CreÃŃ": 44895,
  "amela": 21719,
  "âĢĻ.": 21043,
  "cirÃ¡": 30630,
  "Ġmultinacional": 43687,
  "ĠHablÃ³": 48447,
  "Ġmancha": 16143,
  "veno": 17344,
  "ĠmÃ¡xim": 18829,
  "Ġvolante": 14720,
  "brÃŃ": 33252,
  "Ġparientes": 15436,
  "Ġconce": 3496,
  "Ġcarretera": 4998,
  "ĠmÃ©todos": 9707,
  "Ġexistan": 48191,
  "ĠquedarÃ©": 35555,
  "ĠactivaciÃ³n": 35244,
  "eu": 34907,
  "Ġcantautor": 31536,
  "Ġpeg": 44436,
  "ĠLia": 42943,
  "dÃ¡": 35780,
  "Ġhaiti": 41594,
  "ader": 8996,
  "urai": 35973,
  "Ġsueco": 15324,
  "onaje": 18559,
  "Ġpotencia": 8700,
  "ĠYoutube": 33144,
  "Ġinmensidad": 44697,
  "Ġcotidiana": 20446,
  "ĠContreras": 23224,
  "Ġaudiencias": 30704,
  "Ġalimenta": 24447,
  "Ġsituadas": 19543,
  "came": 45473,
  "ĠCasares": 44721,
  "ĠPremier": 12969,
  "Ġcomparti": 25966,
  "ĠmordiÃ³": 20685,
  "ĠSenadores": 49598,
  "Ġsolares": 21575,
  "Ġsilv": 24537,
  "ĠSanz": 24594,
  "Ġpersuad": 19737,
  "ĠMarine": 14576,
  "ĠSeven": 30304,
  "ĠvendÃŃa": 32362,
  "Ġ1850": 18141,
  "Ġguapa": 15870,
  "ĠIntentÃ©": 41414,
  "inor": 23176,
  "Pase": 48056,
  "ĠYou": 5135,
  "ĠVI": 5494,
  "Ġvoluntarios": 17769,
  "ĠLloyd": 19921,
  "Ġvidri": 32102,
  "urst": 30275,
  "Ġvisitar": 7448,
  "Ġins": 1359,
  "Ġcosteros": 48302,
  "ĠEstuvo": 15390,
  "ĠFac": 8682,
  "pÃº": 46517,
  "Ġconsecutivas": 25420,
  "idar": 11064,
  "ross": 9826,
  "Ġ283": 42056,
  "Ġdispens": 32495,
  "Com": 4658,
  "Ġclavaron": 48194,
  "Ġreluciente": 29273,
  "Ġ1986": 4088,
  "Ġexperimenta": 33322,
  "quial": 26348,
  "vitud": 18163,
  "ĠMotociclismo": 35734,
  "Ġvenido": 5611,
  "Ġmosque": 44307,
  "Ġdecimo": 24512,
  "Ġmolino": 24319,
  "plex": 33859,
  "Ġprejuicio": 45892,
  "ĠDesignado": 28987,
  "Ġprendas": 20055,
  "Ġcoquete": 42138,
  "Ġasco": 21694,
  "Ġsusurro": 16404,
  "Ġarmarios": 36758,
  "tesis": 6219,
  "rost": 27686,
  "Ġextracto": 45427,
  "Ġpanor": 14046,
  "Ã©b": 42560,
  "Ġdevolver": 11767,
  "Ġtambale": 15226,
  "ĠAlmagro": 23927,
  "Ġenvol": 8968,
  "Ġinvita": 26056,
  "ĠConcacaf": 23169,
  "ĠcontribuciÃ³n": 18823,
  "ĠKammamuri": 47176,
  "ĠHarold": 19870,
  "ĠenamorÃ³": 33520,
  "ĠEP": 10562,
  "Ġvistas": 13282,
  "ĠMaggie": 23135,
  "Ġenviaron": 23542,
  "Ġincomodidad": 33529,
  "Ġajustes": 46994,
  "Ġhaberlo": 10840,
  "Ġrefren": 38782,
  "Ġdigamos": 21869,
  "Ġterrorismo": 21872,
  "ĠHogan": 45529,
  "ĠAltura": 42247,
  "Roland": 45769,
  "Ġasegurado": 23778,
  "emon": 31459,
  "ĠRecording": 37188,
  "Ġ213": 36521,
  "Canal": 32459,
  "ĠUstedes": 42926,
  "Ġauf": 43758,
  "ĠcÃŃvico": 42707,
  "hima": 37861,
  "Donnell": 29676,
  "Ġinventar": 29141,
  "Ġbifur": 35758,
  "2000": 6595,
  "Ġautorizado": 30644,
  "Ġregresaron": 20660,
  "ĠProbablemente": 14059,
  "Ġsalte": 40862,
  "Ġurbe": 38184,
  "ĠForest": 23580,
  "Night": 35914,
  "Ġriesgos": 16005,
  "Ġayude": 24131,
  "Ġcomparada": 33178,
  "ĠTransiciÃ³n": 29967,
  "uth": 3895,
  "ĠLee": 6996,
  "zgos": 20756,
  "ĠexÃ³": 19208,
  "Ġcolabor": 5618,
  "Ġ80": 4602,
  "coles": 14416,
  "lom": 18776,
  "Ġconcebir": 28407,
  "istentes": 28891,
  "hyth": 34313,
  "ĠMagallanes": 21015,
  "llÃ³n": 45775,
  "uncia": 6605,
  "Ġiniciar": 12782,
  "ĠKremlin": 48706,
  "Ġcondes": 18461,
  "UN": 8498,
  "Ġepi": 13085,
  "Ġ34": 4004,
  "ĠCruz": 3554,
  "%'": 19714,
  "ĠDefini": 42299,
  "ĠTapia": 31130,
  "istente": 14263,
  "cliffe": 45913,
  "Podemos": 22076,
  "Ġfama": 8595,
  "Ġextas": 43849,
  "ogle": 10287,
  "Ġsuavidad": 13468,
  "Ġconservando": 33374,
  "Ġ1799": 36763,
  "ĠanglosajÃ³n": 48521,
  "ĠLal": 38548,
  "Ġconseguir": 3957,
  "Ġsobresalto": 36226,
  "Ġrecibi": 19098,
  "ĠAres": 30303,
  "Ġcomprendido": 14728,
  "erense": 44619,
  "acete": 13969,
  "haven": 49946,
  "Ġfrialdad": 20804,
  "Ġska": 34214,
  "gÃ©nesis": 45858,
  "Ġresidente": 24741,
  "ĠFemenina": 19730,
  "Ġrestau": 15911,
  "ĠHof": 35586,
  "couver": 20305,
  "ĠMuerto": 37321,
  "Ġhuelgas": 39871,
  "Ġcantones": 32927,
  "Ġcorrer": 5670,
  "Ġconformar": 29342,
  "icia": 1919,
  "pidiÃ³": 23853,
  "Is": 9495,
  "ina": 514,
  "ĠConten": 24649,
  "ĠvÃŃas": 9409,
  "ive": 6472,
  "ĠÃĹ": 40111,
  "ĠDeci": 11474,
  "ĠPiz": 16734,
  "ĠbalÃ³n": 20915,
  "tÃ³nica": 38969,
  "argo": 923,
  "redÃ³n": 33925,
  "ĠLlev": 9475,
  "ĠreÃºnen": 25257,
  "Ġfaz": 30620,
  "ĠAndreas": 22886,
  "ĠSchwar": 32301,
  "itiva": 15549,
  "Ġvolviese": 34779,
  "Ġaspectos": 8093,
  "ĠNormandÃŃa": 24521,
  "ĠAleks": 15801,
  "resÃŃa": 30773,
  "ĠElectric": 30495,
  "Ġafiliado": 41235,
  "Ġfuneral": 18151,
  "Ġdetalles": 6388,
  "Ġ1958": 7336,
  "Ġinsom": 32110,
  "nÃŃ": 38195,
  "umb": 2694,
  "Ġvaliente": 13445,
  "olviÃ³": 13552,
  "ĠTravel": 42804,
  "igen": 18710,
  "ĠÃĵrdenes": 48231,
  "Ġentrar": 3396,
  "Ãºper": 32624,
  "cabi": 36668,
  "Ġconsecutiva": 31663,
  "ĠPom": 20585,
  "ĠView": 32560,
  "ĠHeracles": 47867,
  "ĠMedici": 44562,
  "Ġcelebr": 6924,
  "Ġencamin": 20066,
  "Ġvariada": 30696,
  "ĠmoderaciÃ³n": 47677,
  "ĠDy": 12745,
  "Ġsuperioridad": 20307,
  "Ġaum": 3029,
  "cipe": 3460,
  "Sarah": 34129,
  "ĠSchÃ¶n": 45962,
  "Ġnulo": 43859,
  "ĠNom": 32287,
  "HacÃŃa": 30175,
  "Ġcrucifijo": 45076,
  "Ġintercambiaron": 41854,
  "ĠTabasco": 24553,
  "Ġinexistente": 36946,
  "ama": 1331,
  "bramÃ³": 50097,
  "Ġocurr": 48740,
  "ilidades": 4863,
  "Ġclim": 16825,
  "ĠWin": 6104,
  "Ġinternacional": 3491,
  "alas": 45661,
  "henes": 28085,
  "Ġgrotes": 25039,
  "Ġ1610": 49872,
  "ÃŃbar": 37372,
  "Ġlogre": 46614,
  "ĠBernabÃ©": 34027,
  "fullÃ³": 43639,
  "ĠAlhambra": 44507,
  "amilia": 7004,
  "imia": 9971,
  "Sher": 49288,
  "ĠInteractive": 47928,
  "Ġenfermo": 9894,
  "Ġenloquecido": 41806,
  "Ġincomprensible": 28652,
  "Ġatrocidades": 43661,
  "ĠChristoph": 14130,
  "Ġresidentes": 15060,
  "ĠIng": 2757,
  "Ġmuseos": 20077,
  "zin": 34953,
  "olo": 643,
  "vada": 7218,
  "Ġenormes": 9096,
  "ĠSpl": 30800,
  "ĠislÃ¡mica": 31971,
  "ĠYu": 5268,
  "Ġcumpliendo": 28868,
  "ĠAnita": 32412,
  "ĠSing": 7510,
  "ĠVick": 37998,
  "gica": 5586,
  "ensas": 13107,
  "Ġdell": 33406,
  "Ġtrenz": 25477,
  "ĠVen": 2530,
  "1911": 30782,
  "ĠCarmona": 34465,
  "anthus": 27137,
  "Ġconocida": 3752,
  "ĠasaltÃ³": 40184,
  "Ġbello": 15314,
  "epresidente": 11405,
  "ĠLucky": 28148,
  "ĠalterÃ³": 48479,
  "Ġedific": 28427,
  "Ġpensamiento": 4859,
  "Ġfiebre": 13566,
  "Ayer": 36243,
  "Ġfurioso": 13419,
  "ĠlÃ¡mpara": 13351,
  "Ġgriego": 6529,
  "Ġguardo": 47898,
  "Ġsecreto": 5163,
  "Ġ1907": 13341,
  "Diana": 43478,
  "ĠrespondÃŃ": 31066,
  "piÃ©": 9394,
  "ĠBara": 20424,
  "ĠLisbeth": 47497,
  "Ġrelacionado": 11315,
  "regor": 28861,
  "jistÃ¡n": 27971,
  "Ġescandal": 27785,
  "ĠmentÃ³n": 23847,
  "ĠGoy": 29166,
  "Ġprocurador": 36049,
  "enau": 49647,
  "Ġeternidad": 17842,
  "ace": 2333,
  "Ġtrazado": 16015,
  "Ġconv": 1411,
  "ĠEta": 46109,
  "Ġpropuso": 11412,
  "Ġinflu": 3399,
  "ĠBoard": 36124,
  "Ġespartanos": 41685,
  "ĠtransformÃ³": 18680,
  "ĠNormalmente": 21563,
  "ĠMalm": 41307,
  "1873": 47522,
  "ĠEcuatoriano": 43854,
  "Ġtumor": 33268,
  "Ġayudarle": 23521,
  "ĠPrÃŃncipe": 9450,
  "ĠmarcÃ³": 11022,
  "ĠvÃ©rtices": 41400,
  "onda": 3280,
  "Ġincluidos": 12942,
  "Ġbols": 5021,
  "Ġevi": 3626,
  "Ġfascista": 31476,
  "lon": 6873,
  "Ġascendencia": 20012,
  "ĠBook": 10686,
  "san": 8436,
  "ĠDetal": 19976,
  "Ġintermedio": 23324,
  "Ġpuro": 10233,
  "Ġembestida": 49940,
  "etano": 18415,
  "ĠAuto": 10263,
  "rift": 44147,
  "dijo": 962,
  "Ġtendr": 3986,
  "Ġcompiten": 40412,
  "Ġcaigo": 49126,
  "Ġcontinuas": 28412,
  "Ġidiota": 14217,
  "ĠIndia": 5304,
  "Ġmanifiesta": 18365,
  "Ġhadas": 22917,
  "queo": 27228,
  "ĠJob": 29236,
  "Ġhondure": 38385,
  "ff": 1884,
  "Ã³nimas": 42571,
  "Ġmotivos": 6872,
  "ĠMunicipalidad": 22681,
  "Ġenmascar": 27034,
  "Ġsentamos": 35325,
  "guardo": 45652,
  "hasta": 18470,
  "ĠFlandes": 13674,
  "ĠPolit": 15496,
  "ĠRea": 24718,
  "Ġcordel": 45490,
  "cios": 1519,
  "Ø¯": 31243,
  "bon": 12874,
  "Ġsudamericano": 40036,
  "ĠincluyÃ³": 11965,
  "Ġpartida": 7540,
  "Ġ35": 3592,
  "Ġretar": 33971,
  "Ġ126": 25103,
  "Ġllevarnos": 47072,
  "Ġestudiantiles": 44258,
  "ĠGreek": 48766,
  "ĠfingÃŃa": 48117,
  "ĠSale": 39159,
  "rastro": 37852,
  "kam": 41426,
  "rev": 37128,
  "Ġmodelado": 41615,
  "ĠLuftwaffe": 37271,
  "Ġcondi": 14070,
  "Ġpronuncia": 33233,
  "Ġartillero": 48135,
  "Cer": 14882,
  "Ġmam": 8625,
  "âĢĻ,": 17463,
  "Ġreproducir": 22722,
  "Ġformaba": 12216,
  "sive": 49402,
  "Ġepic": 37821,
  "yera": 15550,
  "ĠimaginÃ©": 32346,
  "Ġgeneradores": 42111,
  "Ġ1900": 10197,
  "uty": 27398,
  "izÃ¡": 2756,
  "Ġnombrar": 16805,
  "').": 6631,
  "ĠBrandon": 26115,
  "Gir": 25412,
  "Ġexplanada": 32381,
  "sele": 18030,
  "odo": 21259,
  "ĠBent": 23714,
  "ases": 38430,
  "Ġcapitales": 20344,
  "ĠDesde": 2390,
  "vil": 1527,
  "Ġliguilla": 43608,
  "Ġcoloca": 18116,
  "ĠGuate": 7201,
  "ĠincorporÃ³": 9641,
  "ught": 27953,
  "Resultados": 33581,
  "Ġextranjera": 17620,
  "Ġcombinar": 32424,
  "ĠexplicarÃ©": 46234,
  "ĠestanterÃŃas": 32493,
  "ÃŃnea": 6861,
  "Ġcc": 25516,
  "Ġdistinguen": 28737,
  "Ġcompuesto": 5237,
  "Ġsumer": 10896,
  "Ġnaranja": 14219,
  "nier": 35759,
  "Sh": 8304,
  "ish": 2647,
  "Ġcomplicada": 22978,
  "ĠBridge": 26163,
  "eppe": 17268,
  "Ġtablones": 43416,
  "Ġgang": 40832,
  "ĠÃļltimamente": 43902,
  "Ġfor": 618,
  "ĠGracia": 21475,
  "Ġnecesitara": 41610,
  "ĠcuÃ¡les": 18960,
  "Dead": 36240,
  "Ġvenida": 42512,
  "ĠJonas": 21479,
  "Ġempezamos": 31751,
  "Ġcontrarios": 38103,
  "Ġinstrumental": 20894,
  "ĠdesviÃ³": 24007,
  "Ġsubespecie": 27404,
  "win": 6025,
  "ĠâĢĵ": 2378,
  "Ġrepugnancia": 33206,
  "ĠSecuri": 45236,
  "ĠPerÃº": 3398,
  "Ġdejar": 2511,
  "Ġmegal": 44827,
  "Ġach": 20458,
  "Ġmajestuoso": 43807,
  "ĠPalma": 12909,
  "Ñĥ": 14827,
  "ĠhÃºmedo": 13867,
  "Ġhables": 31632,
  "Ġcre": 699,
  "ĠZhen": 38172,
  "ĠfracasÃ³": 30049,
  "ĠaÃ±adiendo": 24079,
  "Ġvener": 16891,
  "Ġrecogidos": 32835,
  "Ġdispersas": 42814,
  "Ġambiciosa": 46808,
  "ĠatmosfÃ©rica": 40656,
  "Ġsubieron": 23045,
  "cucho": 25738,
  "cles": 24191,
  "ĠKick": 37778,
  "Ġprovienen": 27085,
  "Ġcontinuidad": 16160,
  "Ġdenuncias": 30852,
  "Ġdebutando": 43361,
  "Gracias": 6625,
  "Ġasistido": 25748,
  "Ġmod": 10194,
  "ĠSimmons": 40328,
  "ĠInvestigaciÃ³n": 12000,
  "todos": 8013,
  "Ġtraductor": 24668,
  "Ġmetidos": 46486,
  "Ġfinalista": 26074,
  "dosos": 30546,
  "Ġfarma": 13905,
  "Ġcontenedor": 36341,
  "Ġguap": 44575,
  "ĠGuido": 19874,
  "Ġ2500": 34663,
  "ĠAlpha": 31359,
  "Ġdisfrutado": 31374,
  "Ġcactus": 50235,
  "ariales": 27146,
  "Centro": 19152,
  "Ġdra": 4563,
  "Ġediciones": 10638,
  "ĠllegarÃŃa": 14363,
  "ĠAgamen": 47963,
  "Ė": 220,
  "Ġcontribuye": 32182,
  "ĠFreire": 46615,
  "Ġburl": 21878,
  "ĠencontrÃ¡ndose": 35330,
  "americ": 2913,
  "PodrÃŃas": 38209,
  "quillaje": 21209,
  "bato": 21327,
  "zaje": 8414,
  "ĠSol": 2747,
  "hacer": 26277,
  "ĠCE": 16918,
  "Ġreunieron": 20314,
  "Quis": 41820,
  "ĠGraz": 38506,
  "Ġactivos": 14192,
  "ĠHidro": 25128,
  "ĠNig": 14843,
  "ĠOfficial": 25149,
  "ĠAmbiente": 22232,
  "ĠScience": 10315,
  "Ġfuese": 4512,
  "pren": 2198,
  "Ġlaurel": 43324,
  "ĠlegÃŃtima": 33282,
  "ĠEarly": 42672,
  "ĠAguirre": 16887,
  "Ġintelig": 4407,
  "Ġreservada": 29797,
  "Ġpertenecientes": 13416,
  "ĠCope": 41787,
  "vÃ³": 14557,
  "Ġnecesitar": 11372,
  "Ġcorral": 30276,
  "ĠGestiÃ³n": 22644,
  "rÃŃ": 4129,
  "Ġgros": 13918,
  "Ġavanza": 22622,
  "LI": 35430,
  "Ġencanta": 17022,
  "ĠLarra": 24765,
  "ĠMinistra": 48811,
  "os": 271,
  "Ġfundacional": 46765,
  "Ġfinito": 48830,
  "itores": 11119,
  "Ġdespreci": 17523,
  "Ġproveedores": 33174,
  "ĠZav": 39345,
  "ĠCosmo": 48333,
  "ĠConde": 9987,
  "Ġarrepen": 14790,
  "Ġdesaf": 10029,
  "ensos": 11497,
  "anticismo": 24770,
  "ĠBeverly": 36236,
  "Ġembajadas": 49227,
  "ĠenseÃ±ar": 17537,
  "Ġpicante": 40742,
  "Ġrec": 1148,
  "Ü": 162,
  "kas": 13876,
  "Ġante": 1345,
  "ĠNoÃ©": 45183,
  "Ġfusion": 18220,
  "ĠmuchÃŃsimas": 46881,
  "Ġizquierda": 3764,
  "ĠmetrÃ³poli": 48816,
  "Ġdoc": 5174,
  "Ġemul": 47713,
  "Ġ64": 8472,
  "Ġjir": 32491,
  "Ġmosaico": 32521,
  "ĠJulian": 22184,
  "Ġviolentamente": 20821,
  "Ġpin": 1887,
  "Ġacorazados": 42314,
  "Ġinstalaron": 27710,
  "ĠSales": 29378,
  "Las": 2821,
  "Ġgalardonado": 24493,
  "Ġtru": 8641,
  "ĠEdipo": 49404,
  "ozas": 39463,
  "ĠBarranco": 42744,
  "Ġsacerdotal": 48168,
  "amilitar": 34126,
  "Ġ'*": 40485,
  "Ġgeneroso": 21679,
  "Ġrobustos": 46956,
  "aney": 44660,
  "Ġsolemnes": 48720,
  "Ġveros": 24999,
  "ĠMB": 31999,
  "Ġhostilidades": 35615,
  "Ġpatata": 39882,
  "Ġalumbrado": 43719,
  "ĠapostÃ³lico": 39621,
  "Ġinmenso": 14349,
  "Ġvolvi": 49134,
  "lago": 10772,
  "ĠaraÃ±a": 17538,
  "Ġiran": 23074,
  "Ãļlti": 32836,
  "erato": 19875,
  "Ġtengas": 15162,
  "Ġpsiquia": 18717,
  "es": 280,
  "Ġhen": 28256,
  "Bre": 23222,
  "Ġcuento": 8597,
  "Ġcarruaje": 16442,
  "Ġdesampar": 33860,
  "adillos": 40839,
  "33": 4414,
  "ĠChopin": 41383,
  "vito": 49659,
  "Ġmanz": 9953,
  "Otras": 36999,
  "Ġdescanso": 10324,
  "Ġengen": 21117,
  "ĠCentre": 20732,
  "ĠMelbourne": 20338,
  "Ġconcede": 24742,
  "ifol": 43490,
  "Ñı": 16688,
  "ĠUnos": 12636,
  "Ġhecho": 1190,
  "teg": 1103,
  "yoshi": 41549,
  "ĠDeportivo": 4026,
  "Ġfuria": 11191,
  "olk": 39501,
  "Ġsoledad": 10652,
  "Ġinsurg": 30158,
  "Ġ1974": 5748,
  "ĠunÃŃan": 38974,
  "Ġvengas": 37068,
  "ĠundÃ©cimo": 49302,
  "Ġlana": 15423,
  "junto": 10258,
  "Ġpregun": 1279,
  "ĠIllustra": 43445,
  "Ġtontos": 35412,
  "ĠPI": 46418,
  "ĠlÃ³gicamente": 44570,
  "Ġdulz": 17626,
  "Ġgrabando": 35870,
  "ĠCanarias": 13732,
  "ĠNuevas": 36579,
  "ĠsuposiciÃ³n": 35940,
  "ĠArtÃŃculo": 18087,
  "Ella": 3925,
  "ĠSonic": 31643,
  "ĠApÃ³stol": 31042,
  "olu": 1304,
  "Ġfinalizando": 32864,
  "Ġboy": 30484,
  "Ġchocolate": 14974,
  "ĠBarn": 24637,
  "Ġayudantes": 26724,
  "Ġlove": 37344,
  "Ġexcesivo": 25162,
  "ĠVisitante": 7359,
  "ĠMM": 44344,
  "Ġhoyo": 36410,
  "Ġdesafiante": 28675,
  "Ġperspica": 35817,
  "fabe": 33868,
  "insistiÃ³": 14150,
  "ĠEntrenadores": 45658,
  "ĠDivina": 33566,
  "Ġcabalgar": 43498,
  "ĠJaponesa": 39552,
  "ĠGuerra": 2544,
  "ĠÃįndico": 31946,
  "ramiento": 31216,
  "Ġdesastre": 12877,
  "Ã±ando": 12364,
  "ĠBerk": 43046,
  "tificado": 11754,
  "Ġrecuerdo": 4836,
  "Ġsignifican": 36009,
  "ĠnociÃ³n": 19111,
  "52": 9047,
  "ĠSoccer": 17333,
  "ĠLindsay": 42207,
  "Ġpretendientes": 38578,
  "ĠLoca": 49681,
  "ĠHold": 47634,
  "tropical": 42115,
  "ĠParticip": 10010,
  "ĠRain": 20754,
  "ĠarqueolÃ³gico": 22422,
  "Ġalberg": 21945,
  "Ġsubray": 28608,
  "tecto": 46539,
  "Ġmin": 1220,
  "Ġcitas": 19736,
  "ĠLock": 22852,
  "ĠIm": 18011,
  "Ġmudo": 20274,
  "Ġentregaba": 31012,
  "Ġembarca": 15674,
  "Ġaborda": 37924,
  "lly": 47819,
  "ĠPrimaria": 31892,
  "Ġfabricantes": 24387,
  "ĠCan": 1660,
  "Ġculpar": 32813,
  "Ġing": 1260,
  "Ġhacer": 873,
  "ĠValverde": 27172,
  "derecha": 34287,
  "Ġsimular": 43279,
  "ĠLara": 12096,
  "Ġimpuls": 6947,
  "Ġabandonara": 40092,
  "Ġadornada": 37579,
  "alda": 35799,
  "Mons": 49690,
  "<|ax8|>": 8,
  "politana": 10607,
  "Ġhoy": 2542,
  "Ġaliment": 10267,
  "Ġsemifinal": 23062,
  "Ġvisigodos": 44207,
  "Ġfieras": 34622,
  "Ġbebiendo": 21335,
  "Ġseveros": 47662,
  "ĠdaÃ±os": 10895,
  "emp": 3631,
  "hawk": 42308,
  "ĠRally": 14641,
  "aley": 45203,
  "Ġva": 1481,
  "Ġcorpor": 15281,
  "Ġastuta": 45718,
  "Ġinclinaba": 29940,
  "Ġenferma": 14559,
  "ĠCI": 27811,
  "attle": 15610,
  "Ġhembra": 15494,
  "tiz": 4409,
  "Hoy": 16294,
  "Ġtrama": 13095,
  "zano": 21600,
  "Ġtransformarse": 31557,
  "rathen": 46226,
  "arch": 9663,
  "ĠObservÃ³": 39783,
  "oyote": 20498,
  "ĠPem": 39900,
  "andar": 17918,
  "ĠSporting": 12170,
  "Ġherradura": 45228,
  "ĠGuardia": 10280,
  "ĠveintidÃ³s": 26823,
  "Ġviera": 13686,
  "cla": 4305,
  "ĠUnder": 16492,
  "wi": 16299,
  "Ġcircuns": 20786,
  "quinas": 7733,
  "ĠdividÃŃa": 40088,
  "Ġejercer": 13500,
  "ĠParada": 32435,
  "Ġeuforia": 37974,
  "ĠsiÃ¨": 47854,
  "Ġapete": 11867,
  "tativo": 30789,
  "Ġinterrog": 16489,
  "Memoria": 49881,
  "paÃ±": 845,
  "rÃ¡ndole": 40978,
  "Ġcolab": 15961,
  "ĠGalaxia": 33757,
  "tri": 5574,
  "ilar": 3300,
  "Ġahogar": 36147,
  "Ġmastic": 26864,
  "Ġbate": 31293,
  "Ġpenit": 17406,
  "Ġdisputado": 18636,
  "rÃ©s": 16912,
  "Ġmostr": 2446,
  "ĠMuer": 39195,
  "Danny": 47561,
  "cultura": 20145,
  "Carolina": 37697,
  "ĠRÃ³mulo": 38567,
  "ĠTree": 35388,
  "ĠJuego": 21835,
  "Ġfortalezas": 29925,
  "Ġ1903": 14109,
  "ĠerrÃ³n": 17782,
  "sionista": 40788,
  "ĠOvi": 43388,
  "Ġcucl": 34788,
  "Ġpersonalidad": 9336,
  "ĠClasificado": 29541,
  "Ġapoderarse": 23092,
  "ĠguardÃ³": 14244,
  "Ġleo": 19621,
  "Ġapartaba": 30047,
  "Ġfam": 50207,
  "Ġnegado": 21255,
  "ĠmovÃŃan": 20175,
  "Ġeternos": 43674,
  "dones": 8613,
  "Å£": 47781,
  "ĠhuÃ©rf": 23454,
  "ĠDonetsk": 46097,
  "reza": 10013,
  "Ġprom": 5148,
  "Some": 36815,
  "Ġestor": 32651,
  "Ġmicro": 9350,
  "ĠVau": 46868,
  "Ġsustitu": 4904,
  "Ġabordar": 25393,
  "inia": 22930,
  "ĠEch": 49177,
  "Ġdestacados": 11583,
  "ĠclÃ©rigos": 32712,
  "Realmente": 33435,
  "Ġcampesina": 31117,
  "ĠNatalya": 46092,
  "Ġfechada": 38472,
  "TAL": 19822,
  "Ġcoin": 6246,
  "ĠArco": 22390,
  "ĠcÃ¡lidas": 38116,
  "Ġoprim": 18129,
  "irÃ¡mi": 15528,
  "ĠempatÃŃa": 48906,
  "Ġdiferencial": 32512,
  "ĠcontestÃ³": 8181,
  "itaciones": 7187,
  "1951": 22647,
  "Ġlibertades": 26899,
  "Ġparentesco": 28849,
  "iele": 31767,
  "Ġanticu": 23389,
  "Ġdescubrimiento": 9884,
  "Ġrecuperada": 44190,
  "ĠMisiÃ³n": 23596,
  "ĠVisiÃ³n": 37957,
  "Ġfutbolistas": 27215,
  "ashi": 28432,
  "<|talk|>": 0,
  "Ġindicaciones": 25367,
  "Ġretira": 25489,
  "ĠtranvÃŃas": 40335,
  "Ġvine": 35279,
  "ĠverosÃŃmil": 43971,
  "ical": 2013,
  "ĠNak": 23924,
  "anna": 8881,
  "Ġproponen": 43935,
  "tiro": 18010,
  "Ġbuscamos": 45015,
  "ikos": 33197,
  "Ġlote": 40269,
  "INT": 39708,
  "itania": 23546,
  "fig": 49760,
  "Ġ287": 43731,
  "americanas": 27373,
  "Ġliebre": 40230,
  "ĠCourt": 18021,
  "Ġbandera": 8139,
  "ĠThat": 19108,
  "Ġtiran": 21822,
  "Ġhacerse": 6490,
  "Ġsudar": 47278,
  "ĠClube": 20683,
  "ĠrÃŃtmica": 25169,
  "Ġacuerda": 32698,
  "ĠOrganizaciÃ³n": 9806,
  "diÃ³cesis": 20668,
  "ĠempuÃ±ando": 48767,
  "rico": 12898,
  "cale": 24827,
  "urce": 22515,
  "eza": 933,
  "interrump": 18590,
  "Ġrealice": 50068,
  "Ġexcusas": 32587,
  "Ġabraza": 31726,
  "ĠVinci": 35111,
  "Ġcian": 47088,
  "Ġfic": 9712,
  "Ġlibros": 3385,
  "ĠSeÃ±orita": 47843,
  "Ġsho": 16541,
  "ĠRichmond": 33064,
  "ĠCornell": 30489,
  "Ġllano": 24236,
  "ĠUnido": 3716,
  "ĠestratÃ©gico": 28310,
  "ĠsonreÃŃ": 40393,
  "Ġbanquete": 24112,
  "1999": 7672,
  "riego": 27712,
  "ĠKenny": 26648,
  "Ġhac": 597,
  "ĠCincinnati": 30795,
  "ĠRomeo": 23821,
  "Ġperfume": 18198,
  "Sa": 7580,
  "ramente": 34955,
  "Valle": 38714,
  "Net": 44760,
  "ĠPilar": 12549,
  "Ġlos": 335,
  "aciÃ³n": 660,
  "ĠFuego": 15960,
  "Ġdisposiciones": 22143,
  "Ġllorar": 7344,
  "ĠCap": 3485,
  "ĠKyle": 25004,
  "ĠAru": 35732,
  "bÃºs": 11887,
  "ĠCog": 40077,
  "alu": 4997,
  "Ġconfec": 19014,
  "ĠCanciller": 49308,
  "Cara": 34475,
  "ĠpequeÃ±as": 5036,
  "Ġdilig": 32880,
  "ĠMuseo": 3974,
  "lagos": 24416,
  "ulsiÃ³n": 12371,
  "ĠKel": 22191,
  "zy": 10182,
  "ĠlesiÃ³n": 14777,
  "didato": 39038,
  "taz": 30210,
  "Ġjuramento": 19036,
  "-)": 23794,
  "Ġafectando": 44796,
  "eraciÃ³n": 1917,
  "ĠCarreteras": 47815,
  "ÃŃsimas": 15257,
  "Ġmatu": 31569,
  "Ġmateri": 21325,
  "ĠBruce": 13641,
  "Ġmarcharme": 25851,
  "ĠcircunscripciÃ³n": 29877,
  "ĠÃģngela": 27477,
  "Ġaver": 5017,
  "Ġatada": 31864,
  "Ġhy": 32659,
  "nales": 23234,
  "Ġtemprano": 8656,
  "Vicente": 50104,
  "Ġnuez": 41723,
  "Ġsociedad": 3727,
  "Ġtarea": 6980,
  "uelle": 49924,
  "shot": 50086,
  "pur": 11271,
  "Rh": 40804,
  "Ġdomin": 2550,
  "ĠBest": 13343,
  "Ġorbital": 19575,
  "Ġresquebra": 45296,
  "Ġcontro": 2029,
  "cog": 27775,
  "mirante": 9739,
  "Pens": 11610,
  "Ġasimil": 34877,
  "Cuando": 3206,
  "ĠEgeo": 41622,
  "orro": 6749,
  "ĠnÃ³m": 21253,
  "tasio": 24407,
  "Ġexigido": 48924,
  "Ġlegend": 16154,
  "Ġincursion": 36627,
  "Ã¡rico": 42526,
  "ĠAbierta": 41439,
  "ĠLitu": 16643,
  "Ġacercando": 28508,
  "Ġepiso": 2802,
  "Ġirre": 5632,
  "Ġaudio": 13062,
  "Ġ1945": 6998,
  "Ġdiva": 34580,
  "ĠRegiones": 48765,
  "gico": 12632,
  "cions": 41795,
  "facto": 19842,
  "Ġsargento": 11434,
  "Tuvo": 40726,
  "Ġ1828": 27662,
  "Ġbellas": 21436,
  "Ġ414": 41653,
  "delia": 39799,
  "Ġmonumentales": 44822,
  "Ġaprobados": 44788,
  "Ġencarn": 25092,
  "ĠAdolf": 24206,
  "Ġsacudidas": 43547,
  "Ġrecuperaba": 49286,
  "Ġremodel": 35208,
  "Ġintervalos": 25240,
  "tulias": 49904,
  "iedra": 48699,
  "Ġvolando": 16445,
  "ĠLazio": 46367,
  "ĠLegen": 38995,
  "Ġcampeones": 18017,
  "Ġestreno": 11540,
  "Ġllevaban": 8519,
  "ĠColina": 41840,
  "ĠWC": 35228,
  "ez": 468,
  "Ġhuevos": 10810,
  "nÂº": 31877,
  "ĠAbarca": 50019,
  "Ġdefendido": 30468,
  "Ġaje": 33036,
  "Ġuniversitarias": 40836,
  "Ġconspir": 24660,
  "ĠimbÃ©cil": 19789,
  "Ġllevarte": 34529,
  "Ġsilencios": 44085,
  "Ġfavorables": 22732,
  "Ġesculturas": 16077,
  "ĠcontaminaciÃ³n": 22117,
  "ĠdeseÃ³": 26421,
  "Ġrea": 26386,
  "Ġdoblada": 39793,
  "ĠCell": 41996,
  "'\".": 11970,
  "Ġterrazas": 33624,
  "Ġheteros": 44810,
  "ĠSmith": 5483,
  "ĠmÃ©todo": 7372,
  "ĠCecilia": 15719,
  "Ġ87": 12638,
  "ĠBernstein": 46886,
  "ĠparÃ¡lisis": 38614,
  "Ġstu": 40196,
  "iers": 12071,
  "Ġmuda": 20951,
  "Ġartill": 9954,
  "ĠBerkeley": 22219,
  "ĠmarquÃ©s": 6428,
  "ĠHulk": 30262,
  "ĠÃ¼": 45706,
  "ĠAnato": 27147,
  "Ġcrear": 5259,
  "ĠPerfecto": 49478,
  "ĠLiteratura": 13236,
  "ā": 199,
  "ĠCapu": 32068,
  "replicÃ³": 7696,
  "ĠOV": 40956,
  "Ġcaminaba": 15538,
  "Ġhospitalidad": 33348,
  "ĠLily": 20276,
  "ĠAfrican": 30682,
  "ĠMiller": 13554,
  "ĠBrady": 40844,
  "Ġmisterio": 10630,
  "ĠSupercopa": 18407,
  "ĠasiÃ¡ticos": 10252,
  "arios": 1445,
  "ĠOriÃ³n": 35995,
  "Ġreflejo": 14279,
  "ĠPuig": 24534,
  "Ġsimple": 2968,
  "trico": 11297,
  "ĠNorma": 24286,
  "Ġdiversiones": 49599,
  "MÃ¡": 23849,
  "Ġvir": 3248,
  "ĠVa": 7482,
  "ĠLink": 28728,
  "Ġdespecho": 43400,
  "ĠCompr": 26040,
  "ĠmuÃ±eca": 11536,
  "ĠColoma": 37853,
  "ĠWilli": 49842,
  "Ġesqu": 19779,
  "ĠNaturaleza": 22776,
  "illium": 39656,
  "Ġaceler": 9307,
  "ĠsueÃ±o": 3928,
  "Ġrecodo": 43895,
  "ĠLut": 21910,
  "Jud": 46662,
  "gari": 42005,
  "Ġfinas": 23645,
  "ĠUnidos": 1239,
  "Ġ36": 3750,
  "ĠsÃŃntoma": 35023,
  "incluyendo": 25377,
  "sider": 17743,
  "ance": 3420,
  "Ġsectores": 10863,
  "Ġmiedos": 28066,
  "Ġagujas": 24873,
  "ĠAUT": 29415,
  "Ġimparte": 49958,
  "nesota": 15492,
  "ĠId": 30836,
  "Ġrechazo": 14819,
  "ĠcÃ¡lido": 15019,
  "irlo": 25660,
  "Ġincrement": 10708,
  "ĠLuft": 32265,
  "Ġhayan": 10517,
  "blo": 7899,
  "abasco": 23883,
  "ocitos": 43310,
  "ĠSko": 38584,
  "Ġanomal": 33497,
  "ĠhaciÃ©ndole": 23195,
  "Ġsufren": 26890,
  "ĠQuiÃ±ones": 45221,
  "Ġaplan": 43230,
  "Ġdesconsol": 35293,
  "Ġdescubri": 35013,
  "Ġnega": 6599,
  "Don": 6832,
  "villo": 31342,
  "Ġmultimedia": 37669,
  "ĠdemÃ¡s": 2495,
  "Ġorganizadores": 39851,
  "1998": 8236,
  "Ġextender": 20630,
  "ĠYrigoyen": 43862,
  "erra": 8000,
  "ĠpreocupÃ³": 36220,
  "rilla": 7629,
  "Ġcalaba": 28031,
  "ĠOcupaciÃ³n": 43131,
  "Ġcolum": 4977,
  "Ġbailarina": 22246,
  "velle": 35937,
  "merÃŃa": 12741,
  "Ġpasta": 18123,
  "Ġciudad": 966,
  "tificaciÃ³n": 7977,
  "Ġanimados": 23935,
  "ĠperdÃŃa": 16409,
  "Ġpastel": 16159,
  "ĠMÃ³vil": 50239,
  "renda": 14704,
  "ĠPerdiÃ³": 39441,
  "iat": 13767,
  "Ġcerveza": 9204,
  "Ġdesplazado": 38527,
  "ĠSainte": 37842,
  "Ã¡stro": 18703,
  "Ġcongreg": 39023,
  "ĠCarro": 44394,
  "patri": 33510,
  "Cele": 48234,
  "Ġcondenado": 11495,
  "Ġhici": 2658,
  "tarme": 11036,
  "Ġconcepto": 6308,
  "Ġsiglo": 1142,
  "orios": 22350,
  "Ġelegido": 4507,
  "VD": 8772,
  "Ġfallece": 39732,
  "Ġ275": 30940,
  "Ġsign": 1982,
  "ĠRaz": 38024,
  "Ġpower": 41010,
  "Ġsoltaron": 49636,
  "ĠVoltaire": 37634,
  "ĠAustralia": 5022,
  "ĠPolÃŃtico": 29383,
  "donesia": 14478,
  "Ġe": 267,
  "ĠsalÃŃa": 7841,
  "Liga": 15586,
  "ĠTa": 2202,
  "orah": 29460,
  "Ġrepleto": 32208,
  "ĠBelo": 38537,
  "ĠAlme": 31482,
  "ĠPotter": 25656,
  "ĠAlexander": 9482,
  "arca": 2866,
  "vy": 8692,
  "ristal": 46362,
  "Ġandaban": 35390,
  "Ġmanifestaba": 41183,
  "Ġ\"âĢ¦": 39895,
  "ĠMire": 24762,
  "Ġ379": 45082,
  "Ġpaternidad": 43256,
  "chillÃ³": 35376,
  "Ġtorso": 21124,
  "ĠobtenciÃ³n": 25771,
  "Ġadaptadas": 38114,
  "Ġraro": 9223,
  "ĠBeta": 39296,
  "eds": 8183,
  "Ġfuriosos": 40410,
  "Ġhelado": 15071,
  "Ġjefa": 18886,
  "Ġtestar": 41425,
  "Ġparecieron": 24211,
  "ĠHablar": 38512,
  "Ġavanzada": 16496,
  "Ġespeluzn": 43410,
  "ĠarqueolÃ³gicos": 17514,
  "Ġmant": 2000,
  "zarse": 40063,
  "ĠNielsen": 36750,
  "Ġmiemb": 1813,
  "ĠTamar": 43720,
  "Madre": 23647,
  "Ġcampamento": 8438,
  "ĠtraducciÃ³n": 9051,
  "Ġ197": 1041,
  "ĠMis": 4847,
  "ĠCorinthians": 44035,
  "ÎŃ": 40356,
  "Ġhelechos": 37033,
  "Ġvig": 3273,
  "Lil": 44971,
  "cientos": 6361,
  "ĠRÃ©": 14035,
  "ĠimpactÃ³": 46971,
  "Ġconsiderarlo": 44128,
  "ĠBarri": 40999,
  "ĠChe": 6467,
  "ĠMarvin": 37693,
  "Ġrefugio": 10394,
  "tec": 2606,
  "ĠGrammy": 20008,
  "Ġrelieve": 15895,
  "Ġ2010": 1584,
  "Ġblack": 26519,
  "Ġ167": 29394,
  "ĠSk": 8327,
  "Ġconejo": 24615,
  "Ġrozaba": 45387,
  "ĠdarÃŃan": 35135,
  "Ġnecesitan": 14016,
  "ĠGla": 24580,
  "cÃ©n": 9898,
  "ĠParecÃŃa": 9088,
  "Ġfil": 1948,
  "ĠMarguerite": 46241,
  "õ": 187,
  "Ġconfundir": 21868,
  "Ġrizos": 27234,
  "Ġperseguidos": 34542,
  "ĠKratos": 36196,
  "Ġbanco": 6932,
  "TO": 8110,
  "ĠClip": 41351,
  "ĠTin": 14224,
  "cir": 2543,
  "ĠtrÃ©m": 30455,
  "ĠTower": 32132,
  "olÃŃ": 14927,
  "Ġsituar": 40102,
  "raca": 27474,
  "Ġforo": 29722,
  "illermo": 5889,
  "ĠSmy": 49351,
  "ixa": 29747,
  "Ġturcos": 18983,
  "stag": 46103,
  "itado": 2973,
  "ĠJud": 14516,
  "erario": 45672,
  "IDAD": 40235,
  "ĠLogro": 24937,
  "ĠBil": 9002,
  "ĠProgreso": 20284,
  "Ġcomponer": 22443,
  "Ġescab": 23630,
  "ĠBeatrice": 33102,
  "Ġperfecto": 8341,
  "Ġmari": 12593,
  "ĠTigres": 21761,
  "Ġhaberse": 7026,
  "ĠEST": 48262,
  "Ġcordob": 35879,
  "borg": 19106,
  "Ġreproduce": 34087,
  "ĠClÃŃnica": 37432,
  "Ġadministra": 7254,
  "ĠJas": 16727,
  "Ġ1972": 5859,
  "Ġconservada": 38386,
  "DE": 11958,
  "Ġsemb": 9858,
  "Ġsalas": 12558,
  "Ġturca": 28773,
  "ĠAcre": 34494,
  "ĠSantam": 44546,
  "ĠMaravilla": 49828,
  "ĠCam": 1168,
  "Ġtransformar": 20554,
  "ĠÃīste": 12771,
  "Ġbonitas": 30587,
  "Ġutilizar": 6293,
  "etos": 36895,
  "Ġdatan": 25435,
  "ĠReglamento": 34593,
  "ANL": 46357,
  "Ġconfluencia": 26853,
  "ĠPlaca": 42750,
  "Ġdesn": 4551,
  "MirÃ©": 32285,
  "Ġ61": 10997,
  "ĠTremal": 40183,
  "ĠdecidÃŃa": 35828,
  "Ġtun": 33649,
  "Oh": 4472,
  "Ġcontenidos": 16320,
  "ĠOlmedo": 32303,
  "ĠRosa": 6897,
  "ĠOsman": 50096,
  "lope": 20825,
  "ĠMija": 27730,
  "Ġalegre": 8443,
  "Ã³s": 4212,
  "Ġpublicaciones": 10126,
  "ĠLI": 49529,
  "Ġtecle": 46974,
  "Ġimpot": 26792,
  "Pra": 46463,
  "Ġdegol": 34797,
  "ĠaragonÃ©s": 28293,
  "ĠVera": 10872,
  "Ġbec": 31045,
  "ĠPes": 9945,
  "Ġtumulto": 35357,
  "Ġmentiroso": 44354,
  "Ġmenos": 1181,
  "Ġolvida": 27318,
  "ĠExtran": 32494,
  "Ġpues": 1068,
  "ĠcÃŃrculo": 8027,
  "Ġminiserie": 26323,
  "Ġprodujera": 45057,
  "Ġcorazones": 18494,
  "ĠGuild": 48731,
  "ÃŃces": 45957,
  "ĠimbÃ©": 17415,
  "Ġespanta": 48078,
  "ĠhablÃ³": 6952,
  "ĠHabÃŃa": 2940,
  "Ġcriterio": 18497,
  "Ġmercenarios": 24483,
  "ĠJed": 41101,
  "ĠPlus": 27920,
  "Ġdiat": 47782,
  "trÃ³n": 4341,
  "Ġavance": 10474,
  "ĠhomogÃ©n": 34128,
  "mamuri": 41965,
  ").": 677,
  "Ġmojada": 31112,
  "Ġadmitirlo": 46723,
  "Ġpretender": 29962,
  "ĠnotÃ©": 29039,
  "Ġdesigualdad": 29328,
  "ĠVÃŃ": 6445,
  "Ġoh": 24851,
  "Ġexterno": 20298,
  "ĠDaba": 34639,
  "Ġautorre": 43827,
  "Ġtacones": 31812,
  "ĠÃ³rbita": 11332,
  "Ġvimos": 19125,
  "ĠsacristÃŃa": 32866,
  "med": 13132,
  "ĠOnly": 40012,
  "Ã¡rsela": 16733,
  "Ġbal": 2526,
  "Ġsolv": 42096,
  "Ġllenaron": 27939,
  "ĠSomo": 44134,
  "Ġllevada": 15919,
  "ĠProven": 27702,
  "ĠdestacÃ¡ndose": 44071,
  "Ġconocimos": 40146,
  "Ġrenomb": 17133,
  "ANT": 30345,
  "Mul": 44335,
  "ĠDuff": 41542,
  "ĠHuerta": 25967,
  "ĠAdministraciÃ³n": 9676,
  "pÃ³sito": 30231,
  "ĠSant": 4923,
  "ĠDeportiva": 12080,
  "Ġdesle": 48151,
  "ĠChar": 3439,
  "Ġasesinato": 6846,
  "aca": 3636,
  "ifa": 9538,
  "ersey": 6668,
  "<|ax7|>": 7,
  "ĠCatÃ³lico": 35600,
  "amp": 4771,
  "ĠGabÃ³n": 49597,
  "Ġmasculinas": 33904,
  "tidae": 28602,
  "ĠeconÃ³m": 3089,
  "hiro": 20428,
  "color": 30474,
  "Ġoscil": 23560,
  "dÃ©r": 24267,
  "Min": 14459,
  "Ġaseguraron": 49381,
  "Ġchas": 12918,
  "Ġhechicera": 49436,
  "Ġcambiar": 5435,
  "Ġig": 2791,
  "Ġindud": 21418,
  "Ġintimi": 36307,
  "Ġoficio": 12589,
  "sia": 17223,
  "Way": 32332,
  "ĠEvi": 25238,
  "Ġobviamente": 22042,
  "Ġtarda": 30987,
  "Ġregen": 35678,
  "Lond": 21830,
  "ĠGalax": 18143,
  "ĠdesdÃ©n": 25456,
  "beth": 23864,
  "ĠSenda": 48292,
  "ĠefectuÃ³": 32135,
  "Ġobstacul": 38700,
  "ĠAdul": 47389,
  "ĠAdon": 39672,
  "ĠLitera": 36694,
  "Ġestupidez": 21192,
  "ĠSerpiente": 43422,
  "Ġdenomina": 12699,
  "Ġtrat": 23019,
  "ĠextraÃ±os": 13723,
  "Ã¬": 19338,
  "Ġbienvenida": 16820,
  "Patrick": 48070,
  "Ãºrico": 45867,
  "isco": 6334,
  "ĠtÃ©rm": 3515,
  "Ġanfitri": 14116,
  "ĠconectÃ³": 44032,
  "ĠVolviÃ³": 14233,
  "Ġvalioso": 22632,
  "ĠESPN": 39340,
  "lidas": 15476,
  "ĠCommonwealth": 47991,
  "ĠCharity": 44414,
  "ĠMitchell": 22996,
  "ĠbajÃ³": 6750,
  "ĠFish": 31231,
  "Ġtaquilla": 27110,
  "ĠDefensa": 8485,
  "Ġrevuelta": 17779,
  "ints": 30888,
  "ĠParedes": 28339,
  "ĠFiel": 50178,
  "Ġapoyo": 4124,
  "ĠlegislaciÃ³n": 17732,
  "udita": 24056,
  "ĠTalk": 44978,
  "ĠtemÃŃa": 13954,
  "Ġfuncione": 45347,
  "Ġsuspica": 33997,
  "illy": 12927,
  "Ġfascinado": 32740,
  "Ġdescendido": 35794,
  "ĠColegio": 7309,
  "Ġalarido": 39093,
  "izcon": 20488,
  "ĠYears": 29913,
  "Ġextrema": 14957,
  "diola": 47538,
  "PI": 13762,
  "Ġestemos": 26274,
  "ĠDado": 17327,
  "ĠRota": 44803,
  "rita": 12788,
  "ĠZo": 8307,
  "gÃ¡ndose": 23203,
  "Ġhambriento": 35323,
  "iner": 7807,
  "ombo": 16455,
  "Ġconstitu": 2824,
  "ĠIsma": 22442,
  "ĠNiall": 42219,
  "Ġfluviales": 39184,
  "ĠAld": 32143,
  "mash": 38190,
  "Ġvidrieras": 44026,
  "ĠBren": 19766,
  "jera": 5821,
  "Ġordenaron": 49225,
  "Ġsocorrer": 45472,
  "Ġentornos": 33098,
  "Ġconferencias": 14082,
  "Ġlargo": 1781,
  "lich": 17425,
  "Ġconsulado": 35611,
  "ĠintentarÃ©": 42398,
  "ĠMec": 19334,
  "ĠBandera": 9439,
  "ĠSelva": 30697,
  "Ġsalga": 19155,
  "ĠacadÃ©mico": 14414,
  "ĠpedÃŃa": 15130,
  "Ġdocentes": 32293,
  "omio": 41094,
  "Ġreplicar": 44931,
  "oba": 35630,
  "ĠCollec": 49104,
  "Ġarra": 20940,
  "Ġlibrar": 25090,
  "Ġascendiendo": 38833,
  "Ġbancario": 44866,
  "Ġanchos": 27189,
  "Ġagilidad": 29808,
  "ĠconfesiÃ³n": 18242,
  "ĠAnexo": 10806,
  "Ġabarcaba": 33935,
  "Ġdesvanecido": 43598,
  "alax": 10139,
  "Biblio": 22327,
  "Ãģn": 19164,
  "Ġcasar": 23011,
  "Ġruptura": 16637,
  "ĠOye": 33335,
  "Ġexperimentar": 19771,
  "ĠcolaboraciÃ³n": 7195,
  "mete": 45899,
  "ĠRay": 7245,
  "caras": 20599,
  "Catedral": 39448,
  "Ġlien": 13449,
  "Ġjunior": 43485,
  "olution": 13536,
  "ĠLook": 39518,
  "Ãºmulo": 27727,
  "ĠAplicaciones": 41861,
  "Ġvien": 6344,
  "Ġplane": 6413,
  "Ġintroducirse": 45393,
  "Ġopres": 36115,
  "ĠRegistro": 20009,
  "ĠmecÃ¡nica": 14497,
  "Ġlleva": 3689,
  "ĠDoctor": 8636,
  "Ġalmen": 22803,
  "ĠacadÃ©mica": 17355,
  "Ã¡tica": 5489,
  "ĠDennis": 22402,
  "ĠrefiriÃ©ndose": 28403,
  "gue": 2465,
  "Ġdiscrepan": 46027,
  "ĠPhantom": 49798,
  "Ġserbios": 36123,
  "Red": 20927,
  "Ġfractu": 47779,
  "tear": 14949,
  "Ġ09": 10021,
  "Ġsombre": 43681,
  "ĠinterpretaciÃ³n": 7964,
  "trina": 9905,
  "Ġnovi": 33893,
  "Ġmale": 19751,
  "Ġdiccionario": 24683,
  "pulco": 30518,
  "fall": 45193,
  "Ġmarchaban": 39369,
  "iss": 3466,
  "ĠuniÃ©ndose": 41244,
  "ĠHeide": 46533,
  "anas": 1994,
  "Ġgrito": 6974,
  "ĠfrotÃ³": 22690,
  "ĠmirÃ¡ndome": 23736,
  "Ãºsqueda": 7102,
  "Ġempapado": 30564,
  "ĠAbra": 13595,
  "Ruta": 33377,
  "Ġfabrica": 42091,
  "AC": 6398,
  "ĠAuditorio": 31965,
  "Ġaporte": 27685,
  "ubles": 45665,
  "Ġlista": 3728,
  "...": 1200,
  "Ġ1844": 24274,
  "Ġadscrito": 48845,
  "ĠasociaciÃ³n": 9418,
  "ĠBorn": 36779,
  "PO": 22593,
  "Ġquejarse": 32472,
  "Ġcultura": 4406,
  "izadora": 46080,
  "Ġcontemplado": 42032,
  "ifican": 42471,
  "Ġnac": 32827,
  "Ġprohibida": 27764,
  "ieri": 17462,
  "ĠvolviÃ©ndose": 19263,
  "later": 3038,
  "Ġlenta": 13682,
  "ĠLiberty": 31800,
  "Ġparpa": 12122,
  "ĠPP": 7735,
  "Ġpalacios": 23960,
  "Ġoscuras": 10543,
  "Ġpretensiones": 27827,
  "ĠSacerdo": 35663,
  "Ġrevueltas": 30865,
  "ubert": 24345,
  "Ġobten": 2954,
  "ĠAI": 40415,
  "gantes": 19126,
  "Ġmuebles": 12474,
  "ĠShadow": 34180,
  "ĠBiologÃŃa": 29214,
  "ĠEstrellas": 27395,
  "Ġparis": 24124,
  "Ġhaberle": 13551,
  "Ġfilm": 13701,
  "Ġcompe": 3045,
  "Ġconfundirse": 34250,
  "Ġ580": 48295,
  "ĠReyes": 7700,
  "ĠmetiÃ³": 9828,
  "Ġinmue": 21385,
  "ĠBAS": 47547,
  "ĠcrÃ©ditos": 16364,
  "Ġagotado": 20272,
  "Ġ'\"": 3915,
  "Ġzombis": 44267,
  "Brien": 34176,
  "nados": 30617,
  "ĠBrian": 11225,
  "ĠniÃ±": 36035,
  "Ġhue": 4725,
  "Ġemplear": 16991,
  "Marta": 41629,
  "Alemania": 17151,
  "olÃ³gicamente": 30652,
  "ĠMaurice": 19794,
  "Ġllor": 4064,
  "aranda": 45580,
  "teros": 5488,
  "ĠPil": 16728,
  "ĠMonto": 27008,
  "gosta": 29196,
  "Ġimpulsa": 43408,
  "Ġofrecieron": 26319,
  "Ġbl": 12124,
  "Ġ346": 42976,
  "vando": 27815,
  "plicaciÃ³n": 33238,
  "Ġremover": 42564,
  "Guer": 45751,
  "Ġmotivaciones": 47981,
  "ĠOz": 24913,
  "Ġencaja": 42717,
  "ore": 3802,
  "lix": 24066,
  "Ġarrugas": 24562,
  "Ġsuperficie": 3245,
  "ĠLetter": 49729,
  "ĠidentificÃ³": 30102,
  "Ġaplicable": 41445,
  "dou": 25423,
  "ĠValles": 39684,
  "Ġfrescura": 42183,
  "duras": 15404,
  "Ġdesigual": 17429,
  "Ġ1795": 35162,
  "Ġmodernidad": 34217,
  "Ġsubir": 6813,
  "ĠPerÃ³n": 17030,
  "tÃ©r": 47270,
  "Ġnegligencia": 48544,
  "Î¿": 10498,
  "Ġparano": 31474,
  "ĠConcer": 16960,
  "Ġviese": 36409,
  "ĠPermite": 45630,
  "ww": 15055,
  "ĠrecibiÃ³": 3526,
  "ĠIntendencia": 40641,
  "ĠErik": 15414,
  "Ġgl": 28209,
  "Ol": 14885,
  "iense": 8022,
  "Ġmaleza": 29432,
  "tina": 4048,
  "ES": 3522,
  "tola": 33535,
  "Ġexpresiones": 15976,
  "ĠDicha": 22439,
  "ĠParad": 25994,
  "Ġprecurs": 33008,
  "para": 5048,
  "tografÃŃa": 13897,
  "ĠcallejÃ³n": 19348,
  "ĠsabÃŃamos": 27991,
  "charme": 46549,
  "ĠMich": 5544,
  "Ġderrib": 9651,
  "ĠTras": 2585,
  "ĠreciÃ©n": 5780,
  "Ġextraer": 21091,
  "ParecÃŃa": 25303,
  "Ġentier": 45763,
  "Ġdesaparecen": 35064,
  "ĠTÅį": 42800,
  "ĠTucumÃ¡n": 15571,
  "dol": 5585,
  "Ã©ndolos": 26024,
  "Ġextravagante": 34042,
  "Ġecon": 2286,
  "Ġucraniana": 42633,
  "Ġalbergar": 19693,
  "Ġdio": 1643,
  "Ġclasifican": 34813,
  "Ï": 149,
  "Ãºbal": 47925,
  "Ġhocico": 25364,
  "Trans": 20959,
  "ĠDebutÃ³": 16822,
  "ĠCayo": 27546,
  "Ġrinocer": 43019,
  "ħ": 237,
  "'=": 44518,
  "ĠCiencias": 5868,
  "Ġayudarla": 21737,
  "ĠGrand": 9801,
  "Ġdepar": 36972,
  "Ġtap": 7281,
  "tamiento": 5871,
  "ontes": 27319,
  "orn": 1245,
  "ĠopiniÃ³n": 5325,
  "Ġradio": 4003,
  "Ġlanzaba": 23941,
  "Ġfemeninos": 21121,
  "Ġcopos": 42948,
  "Ġefectos": 5837,
  "ĠEllis": 29324,
  "Ġapretada": 37829,
  "wing": 22155,
  "ĠArne": 42928,
  "ĠmÃ¡stil": 34303,
  "ĠAutonomÃŃa": 49241,
  "Ġeducado": 21380,
  "Ġcomunistas": 14510,
  "%),": 28206,
  "Ġfunda": 5755,
  "ĠcardÃŃaco": 36014,
  "Ġarchiduque": 37910,
  "ĠdisculpÃ³": 31259,
  "ĠArag": 28288,
  "Ġtrompe": 18260,
  "ĠSherlock": 38715,
  "ĠBig": 9625,
  "Archivo": 13166,
  "âĢ¦\",": 40413,
  "Ġsustra": 26737,
  "ĠHilario": 49890,
  "izaciÃ³n": 3282,
  "Quieres": 9320,
  "Ġlic": 4961,
  "ĠBlackburn": 49664,
  "ĠatraÃŃdos": 42608,
  "ĠMcG": 23361,
  "ĠinÃ©ditas": 45302,
  "Ġactuar": 8324,
  "ĠLiniers": 46573,
  "Ġdesp": 3434,
  "enco": 6808,
  "Ġdoctor": 3255,
  "ĠinvasiÃ³n": 9396,
  "ĠBilly": 12991,
  "alÃ³": 12610,
  "Ġalivi": 11018,
  "Ġestanque": 20779,
  "Ġofens": 10754,
  "Ġparale": 11637,
  "Sr": 46745,
  "Ġconductos": 46523,
  "ĠCabo": 12626,
  "Ġinestable": 30267,
  "Ġcuelga": 35892,
  "urru": 47549,
  "Ġregresaba": 22425,
  "cal": 1291,
  "preguntÃ³": 2223,
  "ĠES": 8128,
  "ĠGaldÃ³s": 43762,
  "tÃŃtulo": 29954,
  "ĠSalomÃ©": 48496,
  "acaso": 35546,
  "idae": 6208,
  "Ġencantador": 23423,
  "Ġsolitaria": 21870,
  "ĠMaximiliano": 24973,
  "Ġusted": 1625,
  "Ġestancias": 24288,
  "ĠChristmas": 29171,
  "Ġprecis": 4684,
  "Ġromano": 8112,
  "ĠMah": 10908,
  "Ġitaliana": 9246,
  "ĠPlaneta": 24120,
  "Ġpiratas": 16877,
  "Ġrechon": 48564,
  "Ġalargar": 41534,
  "domen": 23989,
  "utado": 43379,
  "Ġsegundo": 1903,
  "Ġcompatriotas": 30850,
  "ĠlimÃŃtrofes": 37025,
  "Ġveinte": 4627,
  "ĠArtois": 48829,
  "ĠSuff": 47942,
  "yang": 39949,
  "Ġderiva": 10580,
  "Ġhi": 839,
  "idades": 1281,
  "Ġmayordomo": 17962,
  "Aquello": 27290,
  "ĠLeopold": 41067,
  "Ġescalas": 32337,
  "Antonio": 19294,
  "Ġapacigu": 35927,
  "Ġcurvas": 18356,
  "chan": 8233,
  "Ġposeer": 14658,
  "Ġalberga": 16056,
  "Ġfaltaban": 22673,
  "Ġdiestra": 32456,
  "Ġhoguera": 19471,
  "ĠVasco": 10399,
  "Ġradic": 13935,
  "ĠAquellas": 43187,
  "ĠTanzania": 31230,
  "Ġabofe": 46641,
  "pÃŃ": 23229,
  "letic": 13569,
  "entistas": 38253,
  "ĠbiÃ³logo": 48639,
  "vergadura": 28416,
  "Ġaplicado": 24602,
  "Ġvasallo": 44731,
  "Ã±es": 49916,
  "Ġpim": 30483,
  "Ġdeportivo": 11804,
  "ĠVieja": 20665,
  "erie": 11350,
  "Ġhachas": 40935,
  "ĠJesu": 43752,
  "ĠFÃ©lix": 12102,
  "ĠCorpus": 32947,
  "Ã¼s": 28337,
  "tiocho": 36570,
  "adap": 47284,
  "ĠseparaciÃ³n": 11229,
  "Ġdestruida": 18835,
  "ĠCuevas": 27841,
  "Yo": 2792,
  "ĠmÃ©dula": 34526,
  "ĠelectrÃ³nicos": 20300,
  "Ġdepredador": 47995,
  "Ġmanufactur": 46612,
  "Ġmercante": 38893,
  "Ġhundidos": 37585,
  "ĠControl": 15896,
  "Ġpretendiente": 35900,
  "ĠpÃ³rtico": 27308,
  "MÃ¡laga": 41518,
  "Ġoccidental": 6465,
  "Ġneuronas": 31852,
  "Ġdele": 7863,
  "ĠWey": 49059,
  "ĠFemenino": 15855,
  "ĠPrefer": 35458,
  "espa": 21971,
  "ĠMediterrÃ¡neo": 12692,
  "Jap": 27670,
  "ork": 1973,
  "And": 18919,
  "ĠparpadeÃ³": 24465,
  "Ġindividualmente": 49433,
  "tadoras": 19760,
  "Vis": 32571,
  "ensivo": 20629,
  "perio": 43148,
  "ĠresistiÃ³": 30285,
  "tural": 1505,
  "Ġefectu": 9373,
  "Ġmorada": 24240,
  "Ġvaron": 44602,
  "tades": 5842,
  "Ġnociones": 39586,
  "ĠademÃ¡s": 1856,
  "115": 32126,
  "Ġhelados": 32839,
  "Ġsudoeste": 26089,
  "Ġtimbre": 15295,
  "Ġlond": 30944,
  "Ġtrayecto": 13806,
  "ĠTratamiento": 44245,
  "ĠRan": 9048,
  "ner": 2709,
  "Ġrumores": 13648,
  "ĠAlexandria": 49631,
  "Ġorganizaron": 32675,
  "nar": 11233,
  "Ġembarque": 43085,
  "ipÃº": 17451,
  "Ġtardes": 16025,
  "Ġplanteaba": 47027,
  "offs": 41524,
  "dus": 24473,
  "Alar": 49424,
  "Ġesa": 1208,
  "Ġpino": 19571,
  "psis": 10722,
  "ĠdesconocÃŃa": 34357,
  "ables": 1952,
  "Ġdespegue": 29089,
  "Ġrevelan": 35959,
  "abria": 11516,
  "Ġencargaron": 43518,
  "Ġfortalecer": 31630,
  "LOS": 26726,
  "Ġdepra": 48850,
  "ĠVid": 32136,
  "ĠDÃ¡": 18979,
  "Ġregistrada": 25351,
  "ĠClemente": 18550,
  "ĠMarisa": 34532,
  "Ġinsul": 10133,
  "Ġaparecido": 11674,
  "Ġsalvando": 49301,
  "Ġandro": 35869,
  "Ġaseme": 19577,
  "ĠUna": 1674,
  "xie": 41886,
  "ĠArcos": 35991,
  "ÃŃritu": 4343,
  "ĠTah": 40016,
  "Ġespecializado": 16901,
  "ĠmecÃ¡nico": 19095,
  "ĠbÃ³vedas": 27529,
  "tadura": 8985,
  "ĠÃŃdolos": 43215,
  "Ġvill": 20679,
  "ĠErmita": 24392,
  "Ġtrataban": 22865,
  "viesen": 19397,
  "erva": 2447,
  "plasma": 40268,
  "ĠimitaciÃ³n": 26418,
  "PerÃº": 30430,
  "Ġka": 21721,
  "ĠDomin": 4223,
  "diat": 4649,
  "Ġpale": 22102,
  "Ã³mica": 10637,
  "rian": 24766,
  "Ġdevenir": 46200,
  "Ġmedicina": 9622,
  "ĠCaÃ±as": 46816,
  "exclamÃ©": 37723,
  "ĠraciÃ³n": 39131,
  "ruecos": 12634,
  "ĠAnto": 10556,
  "Ġdespreocu": 22085,
  "Ġrelacionadas": 12243,
  "Ġ1975": 5578,
  "ĠseÃ±alan": 30502,
  "Ġasesin": 12880,
  "Ã¼r": 9184,
  "ĠTodavÃŃa": 10882,
  "Haw": 47874,
  "Ã±ero": 49025,
  "Ġconocedor": 44779,
  "ĠdifundiÃ³": 46373,
  "Ġcriados": 17376,
  "Ġsantidad": 37187,
  "chel": 7877,
  "Ġfantasmas": 17752,
  "Ġprecipit": 26560,
  "Ġmunicipal": 5978,
  "ĠMathe": 25977,
  "Ãģrea": 46346,
  "iremos": 20859,
  "Ġnuestras": 5346,
  "ST": 13126,
  "Ġjornadas": 19624,
  "ĠcaÃŃdas": 30215,
  "Ġcitados": 31697,
  "Ġunivers": 2520,
  "1929": 26978,
  "Ġconsiderar": 9876,
  "Ġpartir": 2256,
  "ĠAlaska": 20366,
  "ĠtenÃ©is": 16334,
  "ĠQuest": 44555,
  "ĠcesiÃ³n": 27911,
  "ÃŃjate": 31626,
  "Ġciudadela": 36939,
  "Ġsolitarias": 44179,
  "ĠDepartment": 49144,
  "ĠOfici": 4116,
  "Ġcristianismo": 14450,
  "Ġmilagros": 19459,
  "ĠDuero": 24391,
  "Ð·": 26109,
  "pues": 1255,
  "Ġarreglos": 20964,
  "Ġendure": 19446,
  "Ġ176": 32462,
  "ĠQuetzal": 40371,
  "Ġdesqu": 35986,
  "Ġprotes": 5380,
  "tala": 35069,
  "Ġafan": 36204,
  "Ġhuele": 29490,
  "Ġhil": 12502,
  "Ġconfirm": 9183,
  "Ġcandelabros": 49242,
  "IC": 6301,
  "Ġagar": 4737,
  "Ġtemporal": 11269,
  "icide": 47729,
  "Ġaplomo": 45247,
  "Ġconocidos": 7480,
  "ĠErhard": 48998,
  "Ġrecopila": 18665,
  "Ġcocinera": 29824,
  "Ġtocara": 40090,
  "Ùħ": 22432,
  "unidades": 49943,
  "Creo": 7749,
  "ĠsabrÃ¡": 23763,
  "Ġempatar": 48543,
  "ervi": 3775,
  "Ġdeshab": 31814,
  "Ġdesanim": 40087,
  "Ġresistir": 13153,
  "nata": 28463,
  "ĠTaipÃ©i": 46743,
  "Ġculmin": 13220,
  "ĠFarmacia": 45670,
  "Ġinver": 6363,
  "ganos": 10573,
  "kin": 5419,
  "Ġhal": 5895,
  "brandt": 46231,
  "mann": 4728,
  "1870": 43683,
  "ĠAqu": 10603,
  "Ġultramar": 31901,
  "ĠMontoya": 30892,
  "Ġencaden": 23751,
  "Ġenci": 2330,
  "Ġbocanada": 36659,
  "urÃ©": 30599,
  "Ġdisimul": 27739,
  "Ġlanzas": 22017,
  "Ġcultivo": 11355,
  "Ġtortuga": 28490,
  "Ġlocalizar": 20486,
  "avor": 1877,
  "Ġexperta": 34149,
  "dial": 1787,
  "Ġ(),": 27387,
  "Guillermo": 32050,
  "ĠToo": 39391,
  "huahua": 18929,
  "ĠDibujo": 45091,
  "Ġzur": 19398,
  "ados": 457,
  "uff": 42842,
  "Ġministros": 14698,
  "ĠSwe": 17770,
  "Ġorina": 31119,
  "ĠSexto": 41712,
  "ĠÃŃnf": 40188,
  "121": 44337,
  "ĠIbarra": 27697,
  "HO": 27107,
  "ĠIris": 16828,
  "Ġdisculparse": 43260,
  "km": 6321,
  "ĠMade": 27731,
  "ĠHav": 21629,
  "Ġdependencia": 19652,
  "ĠTV": 4692,
  "ĠDer": 8601,
  "ĠRecibiÃ³": 19469,
  "PE": 15493,
  "ĠelÃ©ctricas": 23038,
  "Ġbailando": 24189,
  "Ġtajo": 42785,
  "Ġincorporado": 22674,
  "Ġpatrocinador": 40318,
  "1892": 42284,
  "ĠOccidentales": 45621,
  "Ġsufrida": 47654,
  "Ġfines": 6026,
  "ĠAirlines": 13033,
  "Ġpertenece": 7575,
  "tenciÃ³n": 2018,
  "ĠtuberÃŃa": 48555,
  "tarlos": 48272,
  "raza": 44440,
  "ÃŃdo": 1890,
  "ĠPWI": 42708,
  "Ġequiv": 7691,
  "won": 27545,
  "Ġfilial": 17380,
  "Ġsentencias": 37602,
  "Ġprestado": 17927,
  "ĠestarÃŃamos": 43360,
  "Ġresque": 39886,
  "Ġdesfig": 40469,
  "2010": 6115,
  "ĠLuz": 13116,
  "ĠHumano": 40645,
  "Ġmuch": 10803,
  "Ġentere": 43110,
  "Ġdando": 4597,
  "Ġarrastre": 36120,
  "ĠtemiÃ³": 38123,
  "Ġrecogidas": 38151,
  "ĠlingÃ¼ÃŃstico": 39435,
  "Ġubican": 32782,
  "Ġciervo": 33258,
  "ĠKings": 20427,
  "Ġcaba": 11775,
  "ĠlÃ¡mina": 30070,
  "Ġdespedido": 20085,
  "ifer": 12440,
  "anera": 44832,
  "Ġbaloncesto": 9970,
  "Emp": 11858,
  "ĠEsperanza": 17395,
  "inosos": 33692,
  "Ġcad": 40624,
  "ĠPareja": 36665,
  "hesa": 45951,
  "ĠvolvÃŃan": 17644,
  "ĠÃļltimos": 29661,
  "ĠarbÃ³": 44851,
  "Ġhabitadas": 47381,
  "yectoria": 5126,
  "Ġcement": 39873,
  "CH": 12500,
  "ane": 2664,
  "Ġintermitente": 40288,
  "ĠLap": 45640,
  "ĠGrove": 29837,
  "Ġ204": 35320,
  "Ġtestimon": 17794,
  "Ġrevuelto": 34402,
  "SuspirÃ³": 38618,
  "Ġyu": 19384,
  "ĠcÃ¡ps": 20956,
  "Ġsecundario": 16329,
  "Resul": 22051,
  "Ġcoinciden": 23466,
  "grad": 19409,
  "ĠsubiÃ³": 8579,
  "Ġcierran": 41516,
  "tari": 20823,
  "ĠtradiciÃ³n": 6150,
  "DÃŃgame": 46861,
  "ĠmadrileÃ±o": 31525,
  "cÃŃan": 6802,
  "chÃ©": 13073,
  "ĠLeganÃ©s": 37146,
  "ĠCertificaciÃ³n": 39928,
  "grafÃŃa": 1082,
  "identa": 36015,
  "Ġjuzgar": 12528,
  "ĠAband": 40864,
  "Ġpirata": 23122,
  "Ġmanejo": 16644,
  "ĠRox": 25073,
  "Ġsospechaba": 23213,
  "Ġcomprometidos": 46270,
  "ĠtenÃŃas": 18162,
  "allas": 20157,
  "ambleas": 33561,
  "Ġc": 272,
  "atÃŃa": 12895,
  "Ġalcal": 5365,
  "abeau": 49151,
  "ĠButler": 26214,
  "Ġpatas": 9648,
  "ĠCipriano": 42082,
  "ĠSonriÃ³": 29524,
  "ĠColt": 40456,
  "Ġemocionado": 31251,
  "ĠatlÃ¡ntica": 45108,
  "atorce": 11413,
  "wan": 8055,
  "Ġcamarada": 25822,
  "Ġpintaba": 43851,
  "ĠFrederick": 22607,
  "ĠFontana": 37326,
  "ĠsanguÃŃn": 28454,
  "Ġencuentre": 19010,
  "Ġlujo": 11789,
  "American": 18926,
  "Ġhardware": 28986,
  "ĠPortillo": 40353,
  "ĠManson": 47795,
  "Mis": 12168,
  "ĠHeg": 31111,
  "Ġconceptual": 30446,
  "gat": 20791,
  "ĠAlbum": 11420,
  "Ġguerras": 10279,
  "Ġdescarga": 14618,
  "Ġeras": 16103,
  "diese": 18446,
  "Ġevolucionado": 39026,
  "1960": 18080,
  "Gun": 48641,
  "ĠEssen": 41928,
  "ĠtodavÃŃa": 2184,
  "Ġdetectado": 32555,
  "ĠZhou": 42638,
  "Ġ137": 27282,
  "og": 3448,
  "ĠActriz": 20977,
  "Ġtenaz": 35782,
  "Ġarteria": 29003,
  "Born": 49829,
  "ĠApren": 26507,
  "ania": 5993,
  "ĠBarra": 19247,
  "Ġ382": 48053,
  "Ġinfortun": 30739,
  "ĠcontemporÃ¡neas": 37877,
  "Ġrayos": 9949,
  "Ġborder": 10982,
  "Ġcambios": 5667,
  "ĠArnold": 20328,
  "ĠLibertador": 27506,
  "Ġbeber": 8943,
  "Ġapoyan": 33004,
  "ĠBogotÃ¡": 9875,
  "ĠParra": 21477,
  "ugio": 26938,
  "Ġrompen": 46479,
  "ĠLomb": 19238,
  "Ġinterro": 7661,
  "Ġencontrarle": 44023,
  "Cartas": 47797,
  "ĠfrenÃ³": 42551,
  "Ġcarn": 12635,
  "esio": 34136,
  "ĠcÃ¡lculos": 19528,
  "ĠconcedÃŃa": 45886,
  "Ġcomediante": 33942,
  "Ġaspi": 14992,
  "ĠThere": 39070,
  "Ġdecoro": 47416,
  "Ġcarroza": 49562,
  "Ġfurgoneta": 22873,
  "ĠsonÃ³": 12307,
  "Ġsujetaba": 24520,
  "Ġrecuperando": 32282,
  "ĠPont": 34865,
  "ĠKw": 45865,
  "faces": 47648,
  "ocidio": 32965,
  "Ġminutos": 2699,
  "ĠMiguel": 3375,
  "Ġproducen": 11886,
  "Ã¡c": 1740,
  "Ġ997": 44269,
  ",\"": 18433,
  "Ġtempestad": 27088,
  "ĠRoque": 17497,
  "Ġconse": 1461,
  "Say": 46497,
  "ĠVersiÃ³n": 17659,
  "ologia": 37354,
  "iden": 955,
  "rick": 13592,
  "ĠMontreal": 17108,
  "Ġhervir": 44665,
  "dear": 17654,
  "Super": 12813,
  "Ġseparan": 28721,
  "Ġlidiar": 33932,
  "Ġllevan": 8528,
  "ĠmelancÃ³lica": 40942,
  "Ġbordo": 7968,
  "CerrÃ³": 34586,
  "Ġllevados": 22434,
  "Tales": 45543,
  "ĠplantaciÃ³n": 35978,
  "pita": 7960,
  "ralde": 49648,
  "ween": 22025,
  "ĠJudd": 46272,
  "lus": 17271,
  "Ġmuslo": 22878,
  "Ġexpuso": 28019,
  "ĠEstadounidense": 37686,
  "Ġdedicaban": 36320,
  "ont": 12470,
  "Ġocho": 3724,
  "Ġ1957": 7893,
  "dulas": 30335,
  "Ġconforman": 18756,
  "LÃ©": 43355,
  "ĠBay": 6840,
  "Ġcolorido": 36056,
  "Ġinformativos": 36535,
  "Ġcerrar": 7805,
  "Ġcitadas": 44783,
  "Ġgravedad": 11221,
  "ĠuniÃ³": 7289,
  "Ġcuchillos": 26103,
  "Ġdij": 13488,
  "ĠentendiÃ³": 21729,
  "ĠEvelyn": 31763,
  "Ġtienden": 22242,
  "ĠchÃ³fer": 27178,
  "Ġestrecha": 10674,
  "irse": 2847,
  "ĠSotelo": 48237,
  "iberto": 46781,
  "Ġatadas": 38964,
  "sin": 5944,
  "ĠComunes": 47849,
  "ĠKi": 17184,
  "Ġacce": 6029,
  "rÃ¡": 2409,
  "ĠVallecano": 41156,
  "kt": 18272,
  "Ġtradicional": 6193,
  "Ġsoccerway": 44242,
  "torm": 48215,
  "ĠProject": 21776,
  "ĠFront": 48806,
  "ĠRoman": 16741,
  "ÈĽ": 39991,
  "igg": 14299,
  "ĠdomÃ©stica": 28125,
  "rigor": 28351,
  "ush": 9378,
  "Ġprimeras": 4050,
  "ĠcentÃŃmetro": 28754,
  "ĠlÃ³bulo": 38845,
  "Ġalfombras": 28501,
  "ĠAzul": 10571,
  "Regres": 33336,
  "ĠDF": 31415,
  "ptiembre": 1828,
  "ĠSheffield": 34932,
  "tuber": 35415,
  "ĠPorsche": 19861,
  "ĠrÃ¡": 2150,
  "Ġandaba": 17249,
  "Ġviniendo": 32063,
  "ĠAgamenÃ³n": 48335,
  "tificaciones": 18258,
  "Ġhambrientos": 38946,
  "ĠRodrÃŃguez": 5360,
  "Ġsi": 463,
  "cisamente": 20880,
  "ĠMob": 34798,
  "ĠÃļr": 35203,
  "ĠMinor": 42556,
  "Ġapasionada": 35414,
  "cula": 6723,
  "ĠWatch": 37542,
  "ĠvisitÃ³": 16221,
  "Ġfortu": 45527,
  "Ġrealmente": 4199,
  "ipÃºzcoa": 23450,
  "Wil": 24494,
  "Ġmasivas": 41316,
  "Ã¡ngulo": 48789,
  "Ġinjer": 41072,
  "Ġocurre": 5950,
  "ĠCont": 26391,
  "kashi": 50204,
  "Ġportaaviones": 33746,
  "anski": 48749,
  "Ġpreparar": 11034,
  "ĠGalaxy": 28509,
  "Cate": 33950,
  "1990": 10282,
  "Ġsolicitud": 17921,
  "Ġabriendo": 15905,
  "avia": 37668,
  "Ġ1921": 11236,
  "Ġocultaban": 42654,
  "ĠUtah": 22721,
  "ĠARA": 38777,
  "Ġcolombi": 8377,
  "ĠColin": 22871,
  "ĠsubterrÃ¡n": 16394,
  "ĠcreerÃŃa": 43496,
  "Data": 28695,
  "vrolet": 19962,
  "ãģ": 8401,
  "Cic": 29279,
  "allero": 21419,
  "Ġcoche": 3212,
  "ĠIndependientes": 39530,
  "cep": 1418,
  "Ġamplitud": 25770,
  "hoy": 17910,
  "Ġacal": 23206,
  "Ġacusados": 24305,
  "wald": 19175,
  "Ġgana": 6149,
  "chelo": 35554,
  "Ġlindo": 34973,
  "Maldita": 25712,
  "Ġobst": 8869,
  "ĠNiki": 42977,
  "Sha": 21905,
  "Can": 8182,
  "Francia": 20141,
  "Ġcuadran": 29232,
  "Ġocasion": 14286,
  "Ġce": 1528,
  "Ġhacerte": 17417,
  "Cla": 13891,
  "ĠÃŃntegramente": 31160,
  "pers": 9150,
  "ĠInternet": 8197,
  "Ġsuper": 1198,
  "Ġpredi": 8629,
  "Ġdetectives": 30718,
  "Ġetim": 49972,
  "Ġdenomin": 3897,
  "ĠGestapo": 37286,
  "Ġdirectiva": 22525,
  "tenta": 8578,
  "ĠCool": 43618,
  "ĠdiscogrÃ¡fico": 19387,
  "ĠtosiÃ³": 49157,
  "ĠJota": 47305,
  "ĠNuevo": 6000,
  "posi": 7208,
  "ĠSplit": 40586,
  "ĠProductions": 28845,
  "Ġrojizo": 21389,
  "Ġformada": 9411,
  "ĠPacific": 24359,
  "ĠProducciones": 35649,
  "Ġsugiere": 14464,
  "Ġpug": 26727,
  "Ġformar": 4922,
  "Ġteatros": 22629,
  "Ġcapi": 15448,
  "Ġcromos": 19498,
  "ĠAlteza": 26901,
  "Ġdegli": 43879,
  "Ġobjeciones": 34887,
  "seÃ±or": 15746,
  "Ġactuaba": 25968,
  "Ġ490": 44099,
  "lard": 17724,
  "udes": 24116,
  "Ġ391": 47637,
  "Ġrestos": 4984,
  "Ġaur": 14174,
  "ĠDirigiÃ³": 37553,
  "ĠpaÃ±o": 22283,
  "ĠciÃ©n": 48950,
  "ĠÑģ": 39289,
  "Ġnovedad": 18743,
  "ĠpodÃŃas": 27715,
  "Ġproducirse": 22746,
  "ĠfantÃ¡sticas": 47263,
  "Ġanalizar": 18051,
  "ĠUSA": 13513,
  "ĠVit": 13669,
  "Â·": 23115,
  "Ġromanas": 23156,
  "ĠReal": 2579,
  "Rey": 31846,
  "Ġproclamado": 30690,
  "ĠPlants": 29318,
  "Ġsubmarinos": 23708,
  "ĠTÃ¡m": 48494,
  "Ġreorganiz": 17708,
  "ĠÃģguila": 23180,
  "Ġayudante": 12733,
  "ugh": 4741,
  "Dragon": 43688,
  "Ġconferencia": 11425,
  "Ġterminada": 20258,
  "fobia": 30990,
  "Ġsecre": 2415,
  "ĠGastronomÃŃa": 33048,
  "ĠPal": 2386,
  "ĠBorgia": 46581,
  "ĠfabricaciÃ³n": 12488,
  "ĠEU": 48539,
  "Ġmachac": 38286,
  "Ġpie": 1292,
  "Ġconcentrada": 31649,
  "ĠMontevideo": 10270,
  "Ġpasamos": 24917,
  "Ã±ete": 45217,
  "iembre": 1949,
  "Ã³loga": 22045,
  "ĠcediÃ³": 18040,
  "ĠBrunswick": 41552,
  "Ġchirrido": 41150,
  "ĠTouch": 39743,
  "Ġfundido": 32995,
  "Tr": 21263,
  "erador": 4404,
  "roy": 21169,
  "ĠComodoro": 41440,
  "ĠCros": 31594,
  "Ġmante": 14387,
  "Ã¡mbulo": 42697,
  "Ġentrenador": 7107,
  "Ġsometida": 28708,
  "Ara": 29969,
  "Ġcomparar": 27105,
  "ary": 6712,
  "ĠProvin": 4494,
  "Ġcondu": 2255,
  "derick": 38534,
  "ĠComposiciÃ³n": 19194,
  "ĠProvincial": 11354,
  "Ġadorno": 37897,
  "Ġnombramiento": 16821,
  "Ġcarecen": 27906,
  "Ġnovena": 27475,
  "Ġdirectores": 17503,
  "ĠcayÃ³": 5239,
  "Ġenroje": 20876,
  "ĠIncl": 5233,
  "Ġ1988": 4394,
  "Ġhind": 23457,
  "noso": 33075,
  "ĠInfan": 15479,
  "ĠrequerÃŃan": 46349,
  "Ġaprieto": 49375,
  "omba": 8639,
  "ĠpabellÃ³n": 17925,
  "Ġcontribuido": 27447,
  "ĠrecogiÃ³": 15428,
  "especi": 27969,
  "Ġcertificado": 21184,
  "Ġsoberanos": 34448,
  "ĠVanguardia": 39520,
  "Ġ426": 41920,
  "ĠNott": 36605,
  "Ġ1955": 7912,
  "ĠFreder": 16807,
  "propuso": 35719,
  "ĠUNESCO": 29123,
  "Ġministerios": 46124,
  "fue": 18309,
  "Ġvertical": 14672,
  "ass": 39602,
  "ĠSton": 46518,
  "Ġgenerar": 16987,
  "ĠJang": 44353,
  "Alta": 49639,
  "Ġflotaba": 27790,
  "ulle": 28549,
  "jac": 49289,
  "Ġinfluenci": 32739,
  "Ġmorder": 30909,
  "Ġsospechar": 20774,
  "ĠSistema": 8900,
  "ĠFrÃ©": 32283,
  "Ġpredis": 36629,
  "ĠGlasgow": 26324,
  "tÃ³rica": 17788,
  "Ġmontar": 13186,
  "ĠConsiguiÃ³": 37149,
  "ĠGera": 31184,
  "Ġestero": 40334,
  "ĠReserva": 17754,
  "orum": 19545,
  "lase": 38778,
  "Ġsuperh": 25985,
  "ĠmandÃŃb": 11624,
  "ĠCreaciÃ³n": 22427,
  "ĠocupÃ³": 9514,
  "Ġarriesgarse": 35070,
  "ĠTem": 12350,
  "ĠMÃ¡laga": 10140,
  "Ġejemplar": 13983,
  "ĠFuentes": 11165,
  "Ġnotorio": 44427,
  "annah": 20673,
  "Ġtuber": 28124,
  "Ġpegados": 36704,
  "Ġdeciden": 19286,
  "Ġinvitaciones": 44864,
  "Ġ1809": 30030,
  "Ġamenazado": 27218,
  "ciana": 28262,
  "Ġsimplicidad": 40745,
  "Ġprescindir": 34251,
  "ĠEscipiÃ³n": 36858,
  "Ġmorf": 30663,
  "Ġcuernos": 21278,
  "Ġformaban": 12765,
  "Ġviste": 20171,
  "TRA": 29744,
  "Ġcompuesta": 8371,
  "denes": 4675,
  "Ġdescen": 4074,
  "ĠAugsburgo": 50156,
  "ĠFeria": 18405,
  "declar": 18518,
  "ĠLotus": 35598,
  "ĠcomunicÃ³": 24814,
  "ĠsÃ³lido": 16818,
  "ĠJohannesburgo": 48436,
  "se": 425,
  "ĠNapole": 11648,
  "mb": 555,
  "Ġescalofri": 49499,
  "ĠShinji": 39620,
  "Ġvigilia": 38495,
  "Ġhoriz": 7202,
  "izales": 48301,
  "ĠRoma": 3611,
  "Ġvivo": 4480,
  "Ġamenazadas": 49992,
  "rane": 19312,
  "Ġincru": 49498,
  "Ġdroga": 18843,
  "ĠCarp": 32955,
  "Ġmostrado": 13547,
  "riese": 24587,
  "izadores": 32868,
  "ĠrenunciÃ³": 17038,
  "Ġencontrarlo": 25158,
  "ĠAllan": 25539,
  "Ġintrigas": 34938,
  "Ġprecisos": 33239,
  "ĠKunst": 40048,
  "Ġpa": 611,
  "'\",": 13212,
  "ĠHo": 2098,
  "Ġexplora": 29118,
  "Ġpiezas": 6110,
  "ĠIquitos": 47746,
  "ĠAirbus": 35001,
  "ĠAyer": 26675,
  "190": 44909,
  "ĠencerrÃ³": 40917,
  "ĠpÃ³lvora": 21146,
  "AntologÃŃa": 45919,
  "ĠWilder": 42399,
  "Ġneutr": 15963,
  "ĠTravis": 35509,
  "Ġfrecuentes": 14167,
  "tuta": 47848,
  "Ġcostaba": 17648,
  "Ġprocedentes": 12920,
  "Shan": 35553,
  "Ġbrusca": 34733,
  "ĠCelia": 24440,
  "ĠVaria": 36743,
  "Ġafirmar": 16732,
  "vidad": 4672,
  "lal": 17634,
  "j": 83,
  "ĠRAF": 35772,
  "Ġtrineo": 38929,
  "Ġvasca": 28455,
  "ĠChur": 14503,
  "Ġ1849": 23329,
  "ĠMaureen": 49132,
  "uestro": 10988,
  "ĠHermanas": 30513,
  "ĠAlgo": 10400,
  "Ġampliado": 33751,
  "acruz": 11769,
  "ĠcontÃ©": 25248,
  "ĠStevens": 18965,
  "Ġcanela": 34146,
  "ĠconsagraciÃ³n": 34398,
  "Ġespaldas": 8221,
  "Ġdescor": 34614,
  "amba": 10178,
  "incl": 13263,
  "ĠcomprenderÃ¡": 48546,
  "Ġagitar": 48398,
  "stone": 15443,
  "ĠSouza": 45708,
  "ĠÃīcole": 46252,
  "Ġcartag": 32732,
  "Ġcontradic": 24352,
  "Ġornam": 17765,
  "ondo": 10913,
  "tienda": 34647,
  "Ġasienta": 40209,
  "ĠcoÃ±o": 22566,
  "ĠEastern": 40923,
  "Ġpelirro": 19589,
  "Ġtenerte": 45068,
  "Ġsublevados": 35806,
  "ĠdescribÃŃa": 32861,
  "Ġsuceda": 34334,
  "orno": 24856,
  "Ġlectura": 8835,
  "iÃ³n": 475,
  "Ġcan": 830,
  "Ġparticipan": 18976,
  "Ġpeligrosamente": 40527,
  "ĠreanudÃ³": 35304,
  "ĠRhodes": 30930,
  "Ġcinco": 2077,
  "vski": 26641,
  "ĠCuentos": 41896,
  "Ġesperas": 35497,
  "Ġfrustrado": 29889,
  "Ġarrojar": 19748,
  "atorias": 15216,
  "nÃ³": 11939,
  "Ġveteranos": 26063,
  "Ġ153": 29869,
  "ĠQUE": 31891,
  "Ġlamentable": 25935,
  "Ãºrate": 43721,
  "Ġ1773": 45399,
  "ĠDragÃ³n": 28792,
  "Ġsonaron": 42318,
  "ĠPhoebe": 37979,
  "Ã¡s": 399,
  "ĠSidi": 46120,
  "HD": 46175,
  "casi": 31199,
  "Ġcapo": 35476,
  "ĠSelec": 30771,
  "ĠBroadcasting": 43717,
  "Ġenterado": 16781,
  "ĠFiyi": 42517,
  "iscu": 36012,
  "Ġotros": 1071,
  "ĠDw": 33074,
  "ĠPOR": 19241,
  "Ġpromin": 15802,
  "Ġsirve": 7886,
  "ss": 20464,
  "ĠsobresaltÃ³": 27778,
  "cuerda": 18928,
  "Ġentendimiento": 21496,
  "Ġelegantes": 24256,
  "ĠDinastÃŃa": 31954,
  "Ġprotesta": 14120,
  "Ġgenera": 8775,
  "ĠinstalÃ³": 14428,
  "Ġpobla": 7157,
  "Ġhombres": 1462,
  "ĠBot": 5040,
  "Ġcompos": 3608,
  "Zara": 36268,
  "udas": 9083,
  "mites": 6739,
  "ĠadivinÃ³": 49921,
  "eaba": 20075,
  "enan": 35278,
  "Ġdialo": 45651,
  "Ġequipar": 33651,
  "Ġreedi": 23539,
  "ĠSEG": 38695,
  "Ġcafetera": 43979,
  "UG": 19995,
  "Ġeva": 11725,
  "ĠcedÃŃa": 47306,
  "Ġlibre": 2681,
  "ĠEas": 21044,
  "Ġexplosiva": 44910,
  "aragÃ¼ense": 42042,
  "Ġcoda": 33297,
  "Emma": 31168,
  "Ġabro": 22496,
  "dec": 27934,
  "Sex": 32158,
  "Ġrevolucionarios": 24703,
  "Ġhilar": 47049,
  "ĠThomas": 5426,
  "8": 33,
  "Ġsemejante": 6889,
  "Ġvenado": 46962,
  "ĠSob": 14958,
  "ĠdecÃŃan": 12419,
  "Adri": 25084,
  "Ġhechos": 5190,
  "itantes": 8366,
  "Ġ530": 44078,
  "Ġardiendo": 27451,
  "ribuy": 4778,
  "Jes": 18690,
  "ĠRoch": 34811,
  "ĠWalker": 16232,
  "ĠjarrÃ³n": 43654,
  "ĠVivienda": 28440,
  "Ġprotagonizar": 47030,
  "Ġreconstruida": 35790,
  "ĠEC": 22235,
  "Ã¶nig": 30980,
  "Ġincapaz": 8217,
  "Ġpar": 351,
  "Ã¡sticos": 13948,
  "Tres": 15160,
  "ĠCaraban": 43292,
  "Ġprovisional": 18880,
  "ĠproducÃŃa": 14943,
  "ĠHood": 35846,
  "Ġroz": 35057,
  "Ġsigues": 28391,
  "Ġemergentes": 45551,
  "letes": 31537,
  "Ġ500": 4762,
  "ER": 2979,
  "Ġalca": 24663,
  "Ġrestable": 15964,
  "jima": 31806,
  "fondo": 31164,
  "Ġhorrorizada": 37289,
  "Ġimpenetrable": 43737,
  "Ġcremallera": 38839,
  "lengua": 49663,
  "ĠMarx": 15457,
  "worth": 11819,
  "ĠNik": 8130,
  "Ġrecib": 2857,
  "Exp": 39337,
  "Ġay": 1332,
  "Ġvigor": 11259,
  "ĠcasÃ³": 6730,
  "ĠZona": 11032,
  "Ġnacimientos": 48504,
  "censo": 14492,
  "Ġoscurecido": 46959,
  "Ġsuite": 26964,
  "Ġclem": 43449,
  "ĠcentÃŃ": 8864,
  "Cal": 8417,
  "Ġpensamientos": 6122,
  "ĠElisabeth": 32341,
  "Ġconcl": 4030,
  "ĠGala": 18547,
  "ĠSeymour": 42066,
  "ĠPersonaje": 13716,
  "velop": 24276,
  "ĠMass": 22939,
  "ĠrevÃ©s": 17310,
  "Ġreun": 2433,
  "Rafa": 26455,
  "Ġdunas": 32918,
  "ĠMedieval": 42466,
  "ĠFederal": 6696,
  "ĠaplastÃ³": 47829,
  "ĠCrÃ¡": 39467,
  "Ġseguirle": 39731,
  "Ã¼h": 25165,
  "Termin": 28086,
  "ĠantologÃŃas": 48650,
  "ĠAlexand": 21349,
  "ĠMinister": 43426,
  "ĠmetÃ¡fora": 29180,
  "Ġcogidos": 47920,
  "peras": 15652,
  "Ġreforzar": 22513,
  "Ġjoy": 26843,
  "ĠSay": 17476,
  "isfer": 21674,
  "Ġnaves": 8200,
  "ĠHabla": 32713,
  "ĠArkansas": 25026,
  "ĠNordeste": 49702,
  "Ġpom": 22654,
  "Ll": 29421,
  "Ġformal": 10961,
  "ĠpsicÃ³": 38392,
  "Ġdesinter": 30133,
  "cier": 42411,
  "game": 35181,
  "ĠSimpson": 18044,
  "Ġdisminuir": 23233,
  "Ġbon": 4584,
  "ĠTex": 6764,
  "Ġpormenores": 44654,
  "ĠZÃ¡rate": 44365,
  "Ġ402": 46283,
  "ĠWindows": 12003,
  "kers": 14220,
  "Ġcapitane": 48640,
  "ĠideolÃ³gico": 41411,
  "ĠHaciendo": 49049,
  "Ġgobierna": 42193,
  "Ġrealidad": 2404,
  "Ġartefactos": 27166,
  "ĠWo": 14981,
  "era": 437,
  "entin": 29002,
  "cillas": 35536,
  "ĠMayfair": 41378,
  "Ġfluores": 38613,
  "Ġmens": 16595,
  "woo": 38943,
  "ĠAway": 28841,
  "ĠCandidato": 23468,
  "ĠEnferme": 35582,
  "guesa": 23194,
  "troit": 16372,
  "Ġprestados": 39790,
  "Ġrasgu": 45111,
  "1800": 50116,
  "Ġnueces": 42365,
  "Ġvisitante": 13320,
  "ĠWalsh": 31311,
  "cursales": 49668,
  "Ġacaricia": 39985,
  "ĠLeo": 7397,
  "Ġretirados": 36945,
  "Ġdurmiendo": 17351,
  "äº": 31450,
  "1969": 15981,
  "Ġclubes": 8475,
  "Ġreinte": 44379,
  "ĠextendÃŃa": 14258,
  "Spider": 45828,
  "Ġromp": 6803,
  "Ġtrabajo": 1534,
  "ĠgritÃ©": 45810,
  "Exacto": 27623,
  "ÃŃster": 34497,
  "±": 119,
  "Ã³calo": 43998,
  "ĠRobles": 26336,
  "Ġconmove": 33088,
  "ĠNort": 44429,
  "Ã³gicas": 32889,
  "ĠDrama": 16950,
  "ĠapresurÃ³": 15325,
  "ĠcogÃŃ": 27708,
  "ughter": 43006,
  "ĠconvenciÃ³": 21397,
  "ĠDixon": 41176,
  "AhÃŃ": 20218,
  "Ġsoportes": 37533,
  "abel": 3512,
  "Ġvizconde": 27265,
  "bidas": 10716,
  "ĠcamiÃ³n": 14305,
  "ĠtÃŃa": 7327,
  "ĠThi": 49331,
  "cua": 29605,
  "Ġdiscutido": 34375,
  "Ġducha": 15616,
  "Ġponiente": 27213,
  "Juan": 9850,
  "inarios": 44683,
  "Ġencarna": 48023,
  "Ġgri": 1631,
  "Ġcuriosamente": 33464,
  "ĠsabÃŃa": 2005,
  "Ġsediment": 48181,
  "Ġimprovisado": 37568,
  "Ġcompletamente": 4055,
  "Ġfactores": 11111,
  "telo": 10099,
  "tijas": 46751,
  "ĠCare": 42376,
  "ĠGian": 14908,
  "nada": 18193,
  "ĠcÃ¡nones": 48253,
  "olucion": 5620,
  "Ġdecisiva": 25112,
  "goga": 27511,
  "rosas": 23303,
  "ĠBia": 38200,
  "stancias": 40996,
  "ĠvÃŃspera": 23236,
  "Ġdialectos": 31820,
  "laso": 39098,
  "Ġcenas": 41873,
  "Ġdinero": 2635,
  "Jul": 17994,
  "inos": 1575,
  "ĠafirmaciÃ³n": 15742,
  "ĠPonfer": 42104,
  "Ġcontacto": 4646,
  "ĠÃīditions": 41116,
  "Ġsituados": 17913,
  "cadia": 34244,
  "ĠJacobo": 21546,
  "Ġexpertos": 14729,
  "Ġllegaron": 5123,
  "ĠTaylor": 11214,
  "ĠindÃŃ": 7003,
  "ĠFelix": 25356,
  "ĠfenÃ³meno": 9723,
  "ĠolÃŃmpico": 18325,
  "adir": 49072,
  "Ġ2": 371,
  "ĠDeseo": 43940,
  "rust": 19887,
  "trÃ³geno": 28222,
  "Ġinfec": 10228,
  "Ġdiscursos": 19872,
  "ĠCage": 38038,
  "ĠStorm": 27095,
  "Ġaceras": 41448,
  "enio": 9107,
  "ĠsueÃ±os": 6801,
  "ĠBÃ¡": 31034,
  "Ġsujeto": 9317,
  "ĠMurcia": 10351,
  "ĠcocaÃŃna": 33471,
  "ifica": 2420,
  "ĠacusaciÃ³n": 18394,
  "Ġmaravillosa": 16268,
  "ritis": 46760,
  "Ġmensaje": 5899,
  "Ã¯s": 43653,
  "ĠcatÃ¡strofe": 22891,
  "Ã¡culo": 12160,
  "ĠaristÃ³cratas": 42559,
  "ĠCity": 4612,
  "Ġcereales": 25509,
  "ĠVillafranca": 43538,
  "itter": 11921,
  "Ġ560": 44627,
  "Biblioteca": 35617,
  "h": 81,
  "Ġrecuperaron": 45241,
  "ĠConvento": 24901,
  "Ġconje": 23490,
  "iguera": 28622,
  "Javier": 31186,
  "lach": 41009,
  "gether": 39944,
  "Ġunidad": 5685,
  "ĠSolar": 19279,
  "ĠaviÃ³n": 6084,
  "omery": 27005,
  "Ġapacible": 27699,
  "Ġilustrar": 42179,
  "Ġalegando": 24966,
  "mous": 41699,
  "ĠcomprobÃ³": 20562,
  "Ġdesgracias": 31900,
  "Ġrastrear": 44957,
  "Chu": 38078,
  "Ġint": 1299,
  "ĠRyo": 48424,
  "sita": 14717,
  "ĠabadÃŃa": 20356,
  "1988": 11609,
  "Ġcontienda": 21852,
  "Ġelectoral": 9462,
  "Ġpisar": 31196,
  "factos": 22862,
  "ĠFÃŃsica": 18629,
  "garme": 25801,
  "ĠvegetaciÃ³n": 12050,
  "Ġsumas": 36139,
  "Ġpersuas": 48603,
  "pendo": 24496,
  "irro": 16602,
  "tz": 4793,
  "ĠconcesiÃ³n": 17362,
  "ĠMaestros": 40694,
  "Historia": 7746,
  "ĠarquitectÃ³nica": 35727,
  "jal": 6385,
  "ĠarribÃ³": 43571,
  "Ġmejoras": 18439,
  "ĠsÃ¡banas": 16378,
  "chil": 32369,
  "ĠAnn": 9149,
  "ĠConfi": 47070,
  "ĠMesÃŃas": 40570,
  "Todas": 23510,
  "ĠperderÃŃa": 29669,
  "ĠNicolas": 19460,
  "Ġalejado": 14871,
  "Ġequipada": 44286,
  "ĠespeculaciÃ³n": 34633,
  "ĠreÃŃrse": 23869,
  "ĠFalcÃ³n": 39104,
  "nick": 45308,
  "ģ": 233,
  "Ġardientes": 31911,
  "ĠconvirtiÃ³": 3149,
  "ĠRetro": 43291,
  "Ġgancho": 32937,
  "pre": 1049,
  "Ġmote": 30155,
  "nacida": 28681,
  "ĠParaguay": 8152,
  "cionismo": 32789,
  "Ima": 33618,
  "ĠLÃŃmites": 43192,
  "Ġaragonesa": 46822,
  "Ġexcesivamente": 25288,
  "ĠestÃ©": 4942,
  "Ġescrutinio": 42286,
  "Ġmanzana": 15901,
  "ĠJol": 32617,
  "ĠtÃŃmidamente": 33428,
  "Ġrespectivo": 43891,
  "salvo": 49920,
  "igma": 14707,
  "ĠNetflix": 33804,
  "ms": 7271,
  "ĠlÃ©": 29164,
  "ĠBoss": 38672,
  "Ġritual": 15819,
  "ĠAgre": 47934,
  "Ġaborre": 31416,
  "ĠepÃŃteto": 19878,
  "wei": 37806,
  "Ġasalto": 11289,
  "ĠCA": 17897,
  "Ġparacaidi": 44326,
  "reola": 46707,
  "curi": 34436,
  "Ġvencidos": 33051,
  "Ġrar": 13020,
  "Ġsumido": 27802,
  "Ġpicada": 47594,
  "Ġantorchas": 27957,
  "eneas": 31326,
  "Ġ1800": 17982,
  "Ġminister": 26583,
  "arma": 33101,
  "atallas": 12990,
  "Ġmediar": 41859,
  "Ġcuencas": 27413,
  "ĠEspa": 5142,
  "ĠcuÃ¡ndo": 9476,
  "ĠAsc": 29295,
  "Ġapare": 29120,
  "Ġpl": 1298,
  "Ġrepetido": 32496,
  "NÂº": 42131,
  "hold": 44699,
  "ĠFrankfurt": 28955,
  "ĠHuay": 43116,
  "ĠPredi": 40974,
  "Ġblindaje": 36497,
  "ppy": 31995,
  "biologÃŃa": 45944,
  "ker": 3108,
  "ĠCarva": 29297,
  "Ġnorman": 42584,
  "Ġintervenir": 17966,
  "Ko": 25318,
  "ĠWebster": 41453,
  "tona": 13657,
  "Ġcombustible": 11666,
  "isÃ©s": 21491,
  "Ġniger": 44049,
  "Ġacostumbrarse": 43060,
  "ĠAstro": 31545,
  "Ġdescubre": 11184,
  "Ġcomportamientos": 33573,
  "ĠZa": 7487,
  "ree": 13219,
  "Ġborrachos": 30504,
  "she": 43534,
  "ĭ": 243,
  "Ġchileno": 10522,
  "ĠdisponÃŃa": 12716,
  "Ġcontestar": 11618,
  "Ġpalidez": 40039,
  "siguiÃ³": 27484,
  "Ġusos": 14457,
  "pea": 23545,
  "Ġdesnuda": 12633,
  "Ġrap": 14352,
  "Ġvamos": 4989,
  "entÃ³n": 45462,
  "ta": 329,
  "ĠBeh": 43213,
  "ĠStephen": 11807,
  "Ġcalibre": 22998,
  "dit": 29333,
  "chus": 8726,
  "ĠDexter": 45036,
  "Demo": 43031,
  "Ġ1906": 13098,
  "doso": 13222,
  "ĠTop": 7980,
  "Ġintermedios": 42643,
  "clam": 2407,
  "ĠNatalie": 29926,
  "Ġtodoterreno": 46353,
  "primer": 38032,
  "Lady": 25722,
  "ĠirÃ¡": 17144,
  "Ġacusada": 37127,
  "Ġempezar": 6380,
  "Ġencuader": 39123,
  "ĠRiz": 39232,
  "ĠHerÃ³doto": 42653,
  "Ġvariado": 32896,
  "ĠErwin": 48658,
  "Ġescabull": 35597,
  "Ġanual": 9293,
  "ĠRuth": 15061,
  "visiÃ³n": 1503,
  "Ġestri": 20451,
  "ĠPerciformes": 32822,
  "ene": 1285,
  "Ġconquistado": 29352,
  "ĠllamarÃ©": 33440,
  "Ġsubdirector": 41614,
  "Ġtraseras": 30849,
  "ĠFinanci": 29061,
  "ilios": 30656,
  "Ġespas": 28411,
  "Ġalterna": 6017,
  "Ġmodernista": 37340,
  "ĠrÃ¡pida": 7974,
  "ĠNacionales": 17685,
  "ĠmuÃ±ecos": 47091,
  "Ġpenetrantes": 49515,
  "tricas": 18438,
  "Ġsecuestradores": 49274,
  "rent": 30083,
  "Ġfinanciamiento": 41409,
  "Ġ550": 28732,
  "bitros": 33826,
  "ller": 10599,
  "\";": 9711,
  "Ġasentaron": 46873,
  "Ġanunciar": 25675,
  "ĠAtanasio": 47599,
  "Ġdestel": 26635,
  "ĠrobÃ³": 22212,
  "Ġrena": 21989,
  "Ġprincipios": 3690,
  "rada": 2397,
  "Ġrecomenda": 19634,
  "ĠrecibÃŃan": 27294,
  "ĠSociales": 18122,
  "Ġnic": 36108,
  "Ġincansable": 42839,
  "ĠRepor": 34253,
  "ĠTur": 3857,
  "izador": 26317,
  "ĠtropezÃ³": 32509,
  "ĠrelÃ¡mpago": 26523,
  "kovÃ¡": 39210,
  "Ġregistradas": 37355,
  "Ġpita": 47277,
  "ĠMuerte": 14326,
  "Ġconstruyendo": 25836,
  "');": 40810,
  "Ġelimin": 13635,
  "IM": 9211,
  "Ġdocenas": 21627,
  "Ġpodido": 4417,
  "Ã©monos": 39387,
  "mbito": 8303,
  "ecidos": 28048,
  "ĠNovel": 36454,
  "Ġrestr": 9698,
  "Ġdolorosamente": 42009,
  "Ġseparando": 47338,
  "Ġsanitaria": 38794,
  "Ġtercero": 9964,
  "ĠPlatino": 20311,
  "ĠUrb": 19632,
  "ĠhuÃŃa": 42233,
  "ĠMontaÃ±a": 20744,
  "deles": 48697,
  "ĠTuve": 26022,
  "lice": 12573,
  "ĠWhe": 11728,
  "ĠXL": 22986,
  "cific": 18682,
  "Ġadopta": 30216,
  "ĠCharlotte": 12974,
  "Ġfinanciado": 42467,
  "Ġdestacamento": 32912,
  "ĠmirÃ¡ndole": 29211,
  "ĠinÃ©": 16393,
  "Ġsueltos": 31087,
  "Ġarries": 10172,
  "ĠOvalle": 49332,
  "ĠCoordinador": 46583,
  "Ġnatur": 46572,
  "Nota": 23152,
  "ĠinterrumpiÃ³": 10434,
  "Ġpredomina": 42801,
  "rÃ¡st": 24997,
  "Ġbuen": 1549,
  "ĠMountain": 26375,
  "ĠdiÃ³cesis": 13522,
  "mad": 9399,
  "Ġperdieron": 14530,
  "Ġorgu": 5701,
  "ĠfilosÃ³fico": 30548,
  "Ġaterri": 11855,
  "ĠMist": 29647,
  "ĠGaspar": 18167,
  "dition": 42412,
  "ĠIllinois": 13899,
  "cente": 13298,
  "ĠJal": 12117,
  "ĠNombre": 9458,
  "Ġayudarte": 25906,
  "nero": 46563,
  "ĠLanguage": 40151,
  "Ġhistorietas": 28939,
  "Ġespel": 41064,
  "Ġasturiana": 45494,
  "ĠanÃ³nima": 29759,
  "ĠobedecÃŃa": 49629,
  "Ġdistintivos": 49204,
  "ĠMargar": 8187,
  "ĠtriÃ¡n": 18176,
  "Ġcantado": 35176,
  "Ġiglesias": 11500,
  "Ġconsiguen": 26385,
  "Dol": 41311,
  "ĠColors": 48764,
  "ĠJudi": 21746,
  "Neces": 14538,
  "Ġsemanas": 4232,
  "guar": 6544,
  "Ġjudiciales": 25173,
  "Ġnerviosos": 31586,
  "jon": 21226,
  "ĠcombinaciÃ³n": 10832,
  "oncesto": 7141,
  "Ġnegra": 5522,
  "ĠSepul": 36398,
  "llano": 31511,
  "Ġglu": 20736,
  "Ġdesplegar": 40424,
  "Ġrostros": 13248,
  "Ġenrojecidos": 47816,
  "Ġutensilios": 33908,
  "osamente": 5321,
  "ĠSeren": 48996,
  "ĠatraÃŃda": 38611,
  "Ġedad": 2750,
  "Ġsegura": 3862,
  "ĠdiscriminaciÃ³n": 25300,
  "Ġchantaje": 33290,
  "Ġvino": 3796,
  "Ġfuneraria": 36550,
  "Ġinus": 14805,
  "Ġculpas": 48688,
  "fado": 49995,
  "Ġprecoz": 44369,
  "Ġnotoriedad": 38460,
  "Ġchillar": 48552,
  "mers": 21231,
  "Ġsepara": 14052,
  "ÃŃbet": 36505,
  "Ġfeliz": 4819,
  "Ġ6": 899,
  "ĠrozÃ³": 29132,
  "Ġgallina": 24501,
  "ĠTribu": 27512,
  "Ġ81": 11950,
  "ĠSentÃŃ": 29547,
  "Ġdeterior": 15034,
  "Ġentres": 42663,
  "DO": 11678,
  "ĠMerce": 8983,
  "ĠTumb": 45415,
  "ĠEntren": 16194,
  "ĠCommo": 47437,
  "ĠAquino": 36872,
  "Ġrad": 3441,
  "turista": 46325,
  "ĠMED": 16725,
  "Ġgraves": 10986,
  "Ġdisparo": 12295,
  "Ġcuadrangular": 38020,
  "Valencia": 27086,
  "Ġque": 299,
  "ordenadas": 6205,
  "An": 2267,
  "Ġfavorita": 20836,
  "ĠLake": 13795,
  "ĠfrÃŃos": 19740,
  "ĠceÃ±": 17356,
  "princip": 28161,
  "Ã±ez": 5974,
  "ĠProgresista": 31816,
  "ĠreconocÃŃ": 39262,
  "Pri": 28918,
  "Ġabierto": 5533,
  "ĠVincenzo": 44034,
  "Ġmoscas": 25425,
  "ĠÃ³xido": 34415,
  "ly": 2132,
  "Ġbromear": 49016,
  "Ġenv": 5915,
  "Ġasimilar": 33980,
  "Ġactivado": 50147,
  "Ġacepto": 38669,
  "Ġfuncionado": 42234,
  "Ġmareada": 49764,
  "Ġcomprada": 45239,
  "Reco": 42374,
  "Ġpopular": 2754,
  "Ġgua": 8819,
  "Ġsalvarla": 45857,
  "tiga": 22464,
  "bea": 43469,
  "Ġsangre": 2809,
  "Ġdiscreto": 25761,
  "ĠShin": 13889,
  "Ġates": 15053,
  "Ġduod": 43132,
  "Ġsospecha": 15075,
  "Ġtena": 32637,
  "Ġescogidos": 45294,
  "ral": 835,
  "ĠGosse": 24487,
  "ĠintÃ©rpretes": 28186,
  "ĠexplosiÃ³n": 10995,
  "ciales": 3445,
  "mÃ¡ticas": 7278,
  "ĠEnd": 15912,
  "demar": 38416,
  "ĠconfirmÃ³": 12388,
  "cesos": 27996,
  "Ġanto": 14213,
  "Otros": 24532,
  "Ġ1924": 10588,
  "Ġcercana": 9322,
  "ĠPenÃ©lope": 47327,
  "panyol": 36706,
  "ÃŃlica": 13784,
  "Ġsane": 40120,
  "igÃ¼": 17946,
  "Ġcoque": 36199,
  "ĝ": 227,
  "ĠConfederaciones": 41694,
  "Ġquerer": 7967,
  "Ġhispanos": 9435,
  "ĠrecaudÃ³": 48414,
  "Ġdioses": 6566,
  "Ġarres": 9786,
  "ĠOjalÃ¡": 26599,
  "Ġabdi": 34081,
  "Ġintroducidos": 44764,
  "ĠAvery": 37458,
  "Ġracial": 30004,
  "ĠBaldwin": 25993,
  "Ġrelacionan": 41720,
  "ü": 194,
  "Ġcogni": 33716,
  "ĠMuse": 10910,
  "Ġeruditos": 32255,
  "ĠÅ": 8092,
  "Ġvuestro": 9595,
  "Ã³noma": 7459,
  "Ã¡ndo": 1237,
  "abilis": 46568,
  "ĠHistorias": 48665,
  "ĠMesopotamia": 38350,
  "val": 1961,
  "Ġpalab": 1355,
  "MON": 45336,
  "ĠpH": 43385,
  "à®": 45626,
  "ĠcajÃ³n": 15541,
  "ĠGor": 7815,
  "Ġesperar": 4555,
  "Ġaran": 43300,
  "rida": 4693,
  "Ġinnumerables": 18858,
  "ody": 20588,
  "Ġcritic": 9990,
  "Ġentron": 45790,
  "Ġfinanzas": 24699,
  "Ġrestring": 17044,
  "versible": 39424,
  "ĠIndy": 42095,
  "ĠMother": 38340,
  "ĠAnaya": 48884,
  "Ġmig": 10700,
  "ĠRadio": 6184,
  "ĠÃ©ste": 3666,
  "Ġprecisa": 18326,
  "Ġmodelo": 4109,
  "Ġpajar": 24300,
  "ĠMabel": 40753,
  "Para": 4540,
  "Ġconvir": 2361,
  "Ġ380": 32159,
  "Ġrestringida": 45863,
  "ĠSust": 31845,
  "Ġreflejado": 32851,
  "Ġjefatura": 36511,
  "Ġteje": 48396,
  "cuent": 1060,
  "ĠEscri": 10242,
  "Ġ>": 31575,
  "ÃŃcolas": 44206,
  "manera": 42164,
  "ĠStars": 22688,
  "ĠRaw": 19772,
  "x": 97,
  "ĠGent": 37976,
  "Ġdescubierta": 19019,
  "ĠGardel": 40809,
  "pico": 18092,
  "Ġhas": 2443,
  "UniÃ³n": 19946,
  "Ġtren": 4709,
  "ign": 1701,
  "Ġsuministro": 20559,
  "rey": 4842,
  "Ġportando": 36955,
  "Ġronca": 19704,
  "Ġcumbre": 15405,
  "Ġcrudo": 29184,
  "Ġparaguaya": 45911,
  "tera": 1403,
  "Ġrecintos": 43899,
  "ĠJump": 44164,
  "Ġ205": 29182,
  "laciones": 4029,
  "Ġterreno": 5564,
  "ĠhabrÃŃas": 31609,
  "abilonia": 28558,
  "ĠAntena": 24173,
  "Ġobses": 14732,
  "ĠEuskadi": 41112,
  "Ġreflejada": 31322,
  "ĠSpurs": 46957,
  "Ġhablarme": 38139,
  "doto": 34477,
  "ĠSun": 7214,
  "ĠSumo": 49567,
  "ĠpolÃŃticamente": 27805,
  "Ġparaguay": 23639,
  "Ġmaris": 35496,
  "az": 11485,
  "ĠAsia": 6340,
  "ĠaÃ±adir": 11683,
  "Ġadyacente": 33701,
  "lova": 12287,
  "Ġbautizado": 25209,
  "ĠTerritorio": 23143,
  "vor": 4075,
  "58": 9158,
  "Jorge": 20134,
  "ĠEspeciales": 28035,
  "Ġhito": 25496,
  "ĠFilippo": 37273,
  "denburg": 42755,
  "ĠMorrison": 28521,
  "ĠService": 28430,
  "Ġprotegidas": 20570,
  "Ġenviado": 7368,
  "ĠSp": 6448,
  "ĠOmar": 17267,
  "Ġenlaza": 47010,
  "1932": 26138,
  "Ġpreciosos": 25990,
  "ĠlÃŃmite": 7546,
  "ĠmagnÃŃfico": 17252,
  "ABIO": 43207,
  "Ġdetectar": 19839,
  "Ġadentr": 40051,
  "Ġenfri": 20154,
  "ĠmorfologÃŃa": 35621,
  "ĠCin": 8394,
  "Ġbinario": 49093,
  "ĠNH": 33591,
  "bitro": 17578,
  "Ġsecar": 32469,
  "ĠAJ": 43999,
  "Me": 1633,
  "Ġretaguardia": 24571,
  "Ġfuncionando": 28140,
  "ĠDelia": 40103,
  "Ġflotaban": 42152,
  "Ġretrovisor": 43597,
  "Ġgerente": 21230,
  "ĠBernardino": 30222,
  "ÃŃrselo": 34983,
  "laga": 8642,
  "Ġfaro": 18820,
  "HI": 47984,
  "Ġresurg": 33839,
  "ĠOficiales": 40895,
  "Calle": 31314,
  "ĠTC": 15311,
  "Ġmaderas": 33519,
  "ĠLives": 46569,
  "Ġrehenes": 29790,
  "Ġreemplazando": 35409,
  "uestra": 3718,
  "Ġcompensar": 30500,
  "Ġinspirado": 16583,
  "Ġbasaba": 33434,
  "Ġparcelas": 43673,
  "ĠPho": 11220,
  "ĠPeugeot": 25784,
  "Ġangustia": 11616,
  "ĠPitts": 26590,
  "ĠRosales": 32607,
  "Ġvina": 34921,
  "Ġcolegio": 7308,
  "ĠÃ©tn": 14960,
  "Lea": 24895,
  "Ġestrategia": 11279,
  "cron": 18906,
  "gÃ¡is": 25950,
  "ĠconformÃ³": 47173,
  "gla": 24005,
  "Ġcotidianas": 47183,
  "Ġtocarla": 31347,
  "Ġtransportaba": 40041,
  "ĠestÃ©n": 13724,
  "Bras": 24292,
  "Ġpremiado": 37387,
  "Ġdato": 19654,
  "ĠDI": 33721,
  "Ġmelodra": 40359,
  "tarÃ©": 32964,
  "Ġabol": 13974,
  "ĠechÃ¡ndose": 47059,
  "chard": 40086,
  "Ġhaber": 1204,
  "ĠReport": 34583,
  "mouth": 20678,
  "ĠdefendiÃ³": 20432,
  "ERS": 45993,
  "Ġaparente": 14751,
  "Ġfabrican": 50220,
  "puesto": 2328,
  "Ġimpl": 34870,
  "Ġobediencia": 26194,
  "onios": 7100,
  "ĠKen": 8715,
  "Ġconcreta": 23219,
  "Ġpermanecieron": 19330,
  "ĠSven": 38629,
  "Ġfinalidad": 16653,
  "Stu": 27342,
  "Ġagudas": 41932,
  "PG": 11690,
  "Ġcolgados": 39751,
  "ĠÃ¡spero": 29139,
  "ĠSaya": 50033,
  "tÃ³logo": 35103,
  "Ġbailarinas": 45120,
  "tasis": 23060,
  "ĠBla": 3914,
  "Ġescuelas": 8570,
  "Ġelevada": 13816,
  "Ġretrospec": 33076,
  "ĠEsca": 20798,
  "Ġcirculan": 42906,
  "ĠtitubeÃ³": 46443,
  "ierda": 8630,
  "Ġadaptado": 21903,
  "Ġdental": 45776,
  "ĠcogÃŃa": 27605,
  "Ġtomando": 8419,
  "Ġtraspas": 11991,
  "Ġterren": 9919,
  "ĠdestruyÃ³": 23352,
  "quillos": 26582,
  "ĠMarca": 21208,
  "ĠWade": 35922,
  "intendo": 14334,
  "Ġnot": 8208,
  "Ġ97": 11167,
  "ĠMayor": 5934,
  "CU": 28273,
  "ĠWoody": 48452,
  "ĠJessie": 40884,
  "ussia": 29693,
  "65": 6521,
  "NA": 15830,
  "Ġretor": 7247,
  "ĠNoticias": 25608,
  "Ġcomens": 36008,
  "ĠAhmose": 39506,
  "tÃŃ": 6790,
  "ĠPublishing": 22193,
  "Ġincredulidad": 24775,
  "Ġpareja": 5240,
  "Ġsolicita": 38555,
  "Ġmotocicletas": 39592,
  "lecciÃ³n": 2041,
  "Ġcoincide": 24368,
  "Ġdiscrepancias": 49612,
  "Ġgn": 33386,
  "Ġjub": 19182,
  "piraciones": 32335,
  "Deci": 22809,
  "Ġmedidas": 7871,
  "Ġnoches": 5659,
  "ueto": 25421,
  "ĠCentroamÃ©rica": 24716,
  "ĠPocos": 28953,
  "Ġmencionados": 24374,
  "Ġconciliar": 31029,
  "yÅį": 42255,
  "ĠMia": 25902,
  "ventud": 5683,
  "ĠGarci": 32736,
  "Ġhallado": 19639,
  "ĠenÃ©rgica": 37375,
  "ĠConscientious": 18861,
  "IE": 21085,
  "golpes": 42883,
  "Fer": 26480,
  "Ġamarilla": 15263,
  "Ġad": 927,
  "Ġpasillos": 18862,
  "ĠcampiÃ±a": 47324,
  "entÃŃ": 20395,
  "ĠPh": 3609,
  "estramiento": 47291,
  "Ġlea": 45774,
  "ĠGNU": 34848,
  "Ġplural": 24250,
  "Ġsustancias": 18532,
  "Ġarmadura": 15589,
  "Ġdotados": 43631,
  "ĠEmple": 17389,
  "emenino": 46155,
  "Ġcocodrilos": 45424,
  "senada": 37763,
  "Ġ{": 34669,
  "Ġtonalidades": 47415,
  "ĠAlia": 49691,
  "Ġcorrido": 22680,
  "Ġful": 11885,
  "agas": 18995,
  "lea": 16066,
  "Ġdesarm": 47303,
  "ĠMicho": 22806,
  "Ġremontan": 32227,
  "ĠIX": 10057,
  "Iron": 43508,
  "ĠChecklist": 45720,
  "uny": 43896,
  "Ġconductor": 10952,
  "Ġorquestas": 39288,
  "vimientos": 35639,
  "Ġavanzaban": 27092,
  "ĠSÅį": 45616,
  "Ġsatisfac": 6338,
  "Ġchocar": 28042,
  "etÃŃa": 32231,
  "lata": 16110,
  "Ġreggae": 43293,
  "ĠPolo": 16636,
  "gale": 50007,
  "Ġmixto": 23064,
  "ĠcarecÃŃa": 19653,
  "ĠtelÃ³n": 32226,
  "nic": 26088,
  "Ġglobos": 33910,
  "bourne": 15511,
  "ĠAng": 12066,
  "Ġplanetas": 15910,
  "ĠpodrÃ©": 16148,
  "ĠZimbabue": 35755,
  "ĠâĢł": 36986,
  "Ġarre": 4533,
  "udÃ³": 12559,
  "Ġmani": 15945,
  "Ġapoyarse": 36745,
  "ĠBron": 16494,
  "Ġfacto": 26256,
  "ĠTransportes": 26980,
  "Ġoy": 33534,
  "Ġpasaran": 41405,
  "ĠMarcel": 12256,
  "cat": 21678,
  "Ġesqui": 27157,
  "Ġemergente": 44166,
  "bard": 27978,
  "Ġzambull": 48729,
  "dÃ³nde": 18679,
  "Ġsoberano": 16472,
  "ĠBajos": 7572,
  "Ġmaneras": 11448,
  "Ġaclarado": 49497,
  "ĠDjo": 49330,
  "ĠFad": 39032,
  "';": 7425,
  "tira": 27728,
  "Ġactuado": 24334,
  "inocer": 40401,
  "Ġdefen": 4543,
  "Ġsegu": 872,
  "Ġdecreto": 10784,
  "ĠocupaciÃ³n": 10410,
  "ĠMoscÃº": 7469,
  "ĠDesierto": 33333,
  "ĠrechazÃ³": 14659,
  "pellier": 32940,
  "irÃ¡": 7399,
  "buen": 32728,
  "ceta": 41678,
  "icias": 9454,
  "Ġmision": 16604,
  "Ġindust": 3550,
  "ĠMoon": 16020,
  "Ġpreguntaron": 35711,
  "kovic": 34216,
  "Ġrelojes": 26400,
  "inete": 8020,
  "Ġesporas": 49741,
  "Ġcetro": 46445,
  "ali": 12594,
  "Ġcompletas": 24497,
  "organiz": 13187,
  "Ġculo": 15487,
  "Ġrodeando": 33631,
  "Ġdulcemente": 36993,
  "ongo": 42766,
  "urado": 7707,
  "Ġgases": 19145,
  "gna": 25662,
  "Ġcriatura": 9367,
  "ĠAno": 21803,
  "males": 28744,
  "ĠTemplo": 15229,
  "ĠpÃ³st": 19336,
  "Ġlogra": 9206,
  "Ġfatigado": 48256,
  "ĠDirec": 45021,
  "Nuestra": 23535,
  "Ġdivers": 2352,
  "Ġtraducidos": 47160,
  "ĠRolls": 45678,
  "Ġforasteros": 48732,
  "Ġmomento": 1095,
  "ĠRab": 16917,
  "Ġcombinadas": 50087,
  "Vete": 26634,
  "icina": 38935,
  "Ã¡ndez": 3942,
  "ĠestÃ¡n": 1582,
  "Ġecos": 15977,
  "cosos": 35535,
  "Ġmilenio": 26197,
  "Ġidioma": 7234,
  "Ġmejor": 1150,
  "Ġqueb": 15547,
  "ĠInferior": 44705,
  "Ġzancadas": 31532,
  "aleda": 49785,
  "Ġ161": 31571,
  "ĠBug": 23950,
  "Ġculmina": 45248,
  "Ġpacientes": 10511,
  "AtlÃ©tico": 23781,
  "Ark": 50070,
  "Ġpenet": 16907,
  "Ġair": 19905,
  "per": 532,
  "gamente": 26839,
  "Ġref": 1489,
  "Ġpresidir": 47004,
  "Ġinducido": 46474,
  "Em": 20624,
  "Ġcie": 11801,
  "quea": 34608,
  "tonio": 44728,
  "ĠEy": 23281,
  "Ġvello": 26463,
  "ĠIsabella": 32339,
  "orada": 1547,
  "celaciÃ³n": 34636,
  "ĠfrontÃ³n": 37819,
  "inario": 12383,
  "Ġdescansar": 11872,
  "ibol": 17329,
  "Ġorejas": 12532,
  "Ì": 146,
  "CÃ³": 30741,
  "Ġmang": 45503,
  "ĠXI": 2697,
  "ond": 1589,
  "Ġescaso": 18354,
  "ulas": 4408,
  "Ġasignada": 38937,
  "Ġempujones": 48380,
  "ĠPuedes": 20492,
  "ĠVosotros": 48871,
  "Ġber": 13267,
  "ĠantelaciÃ³n": 46991,
  "Ġcuyos": 7463,
  "ĠquedÃ³": 2444,
  "leg": 1775,
  "ĠCanadÃ¡": 5754,
  "cionarios": 29246,
  "ĠHÃ©": 8854,
  "Ġdicho": 1851,
  "Ġquedas": 20149,
  "Ġvolup": 37754,
  "ĠCartel": 47409,
  "Ġresultaba": 7086,
  "pura": 15148,
  "Ġoctavo": 19202,
  "hashi": 37992,
  "Ġrecurrente": 22805,
  "ĠKrasno": 22364,
  "ĠCons": 3962,
  "vidos": 21757,
  "Ġecuatoriano": 29261,
  "ľ": 260,
  "ĠpolÃŃtica": 2521,
  "ĠFrie": 13814,
  "ĠHorror": 38070,
  "econ": 22223,
  "ĠEstra": 28670,
  "Ġingresos": 6561,
  "cha": 645,
  "mÃ¡ticos": 10781,
  "ifique": 43491,
  "ĠDebiÃ³": 40842,
  "agosto": 45659,
  "Ġhura": 28382,
  "Ġartic": 11653,
  "Syl": 41293,
  "ÃŃsmo": 11013,
  "Ġdejaban": 14660,
  "von": 17046,
  "Ġpoliciales": 26908,
  "Ġjustamente": 19729,
  "ĠWagner": 20325,
  "Ġmatiz": 32894,
  "ĠFlan": 38581,
  "espierre": 34299,
  "âĢĻ": 2313,
  "taron": 2675,
  "Ġcomedia": 9375,
  "amuno": 50192,
  "Ġseleccionado": 16703,
  "ĠClaire": 16670,
  "uerga": 35444,
  "ĠMaugÃ©": 25548,
  "ĠincreÃŃblemente": 26666,
  "Ġtembloroso": 39327,
  "ĠON": 12447,
  "Ġdestartal": 47218,
  "stown": 44055,
  "ĠnÃ¡huatl": 35906,
  "Ġtac": 17965,
  "ĠinyecciÃ³n": 26627,
  "ĠescribiÃ³": 4613,
  "ĠSout": 30688,
  "Ġvaquero": 39601,
  "ĠpostulÃ³": 45933,
  "ĠKohl": 44324,
  "Ġ400": 7916,
  "ĠMuertos": 46417,
  "guero": 24804,
  "Ġsuyos": 10036,
  "ĠTeam": 8346,
  "ĠTomatoes": 39834,
  "ile": 1322,
  "ĠOttawa": 38234,
  "ĠKei": 42153,
  "Ġganados": 20191,
  "fijo": 35691,
  "llar": 5662,
  "ĠLlano": 32874,
  "ĠEsquÃŃ": 30832,
  "ĠAndorra": 27468,
  "bec": 11978,
  "eberg": 34387,
  "Äģn": 41291,
  "ĠPodrÃŃamos": 36988,
  "ĠTe": 1117,
  "Ġnegarse": 28486,
  "Ġ*:": 23158,
  "Ġpercibe": 29991,
  "ĠDefensor": 24030,
  "Ġancestros": 37077,
  "Ġ1999": 3060,
  "Ġprecauciones": 27454,
  "Ġpatrimonio": 11757,
  "ĠTelecinco": 26975,
  "ĠPabellÃ³n": 26249,
  "nel": 30099,
  "Ġsentados": 12576,
  "ĠBrom": 35380,
  "Ġ1942": 8358,
  "Ġindustria": 6323,
  "ĠTs": 16460,
  "ĠHussein": 47211,
  "Ġhondo": 12686,
  "Ġsueldos": 37510,
  "ĠMÃ³naco": 26438,
  "Ġbarric": 33168,
  "Ġ228": 39398,
  "iÃ³": 691,
  "Ġenteras": 23144,
  "li": 1061,
  "ĠMona": 18521,
  "ĠteÃ±ido": 42181,
  "Ġproteg": 3567,
  "Ġofer": 8604,
  "%,": 16493,
  "Ġirritante": 43032,
  "ĠcÃ©lebres": 26691,
  "Ġconquistadores": 29670,
  "Ġatacaba": 47294,
  "Miss": 16554,
  "ĠdiscÃŃ": 12894,
  "ĠBotany": 45453,
  "Ġparticipa": 11860,
  "ĠresonÃ³": 28827,
  "Ġorien": 3991,
  "ĠTra": 2488,
  "Ġ1765": 49175,
  "as": 278,
  "gh": 10276,
  "ĠpensÃ©": 7816,
  "ĠdejÃ¡ndome": 46119,
  "Ġtriunfante": 35518,
  "ĠAgÃ¼ero": 48953,
  "ĠMyr": 42434,
  "ĠViana": 38955,
  "Ġalt": 22750,
  "Ġcohete": 21662,
  "Ġllamadas": 9815,
  "ĠJer": 4277,
  "Ġfundaron": 25207,
  "ĠJub": 44686,
  "Ġprepara": 12713,
  "Ġflexibilidad": 37519,
  "ienen": 10056,
  "Ġallan": 34778,
  "Ġabandonar": 6761,
  "Ġsinceramente": 26697,
  "ĠLÃ¶": 42937,
  "Pam": 41059,
  "Ġcolosal": 33569,
  "flex": 26207,
  "ĠNegro": 8924,
  "ĠsentÃŃa": 2970,
  "Ġprim": 601,
  "tonda": 36893,
  "Ġizquierdas": 40044,
  "Ġhorda": 48336,
  "Ġasum": 6010,
  "Ġluchaba": 26985,
  "ĠInteramericana": 41733,
  "ĠQuisiera": 45827,
  "Ġcita": 7847,
  "ĠBeatriz": 16327,
  "Ġbrigadas": 45715,
  "Ġelim": 3933,
  "Ġesenciales": 22603,
  "Ġseminarios": 38551,
  "Ġidiotas": 39489,
  "SaliÃ³": 26613,
  "ė": 221,
  "ĠTampa": 40744,
  "iga": 1543,
  "Ġquej": 21466,
  "tinu": 7084,
  "cotas": 38745,
  "ÐµÑĤ": 41763,
  "ecÃŃa": 2706,
  "Ãĸ": 45908,
  "tans": 50093,
  "Ġpuber": 47888,
  "Ġimpresos": 36933,
  "ĠPesca": 37151,
  "ĠpublicaciÃ³n": 7184,
  "Ġluchado": 29060,
  "Lat": 37756,
  "Ġtrepar": 32672,
  "ĠpolÃ©micas": 43348,
  "Ġafe": 15958,
  "esar": 45154,
  "AA": 15458,
  "ĠAbbey": 42218,
  "1925": 27847,
  "ĠAntologÃŃa": 42511,
  "ĠLibros": 16053,
  "Ġreapar": 18028,
  "cks": 13413,
  "moder": 33642,
  "dur": 39466,
  "ĠartesanÃŃa": 38055,
  "Off": 49256,
  "Ġincen": 6044,
  "sam": 34562,
  "guro": 50065,
  "Ġnosotros": 2377,
  "atales": 13358,
  "pp": 8576,
  "ĠaceptÃ³": 10241,
  "ĠÃģrabes": 30863,
  "Ġarri": 2965,
  "ĠLeticia": 38774,
  "Ġocuparme": 49901,
  "ĠIB": 46110,
  "abela": 24965,
  "Ġformalmente": 18616,
  "ĠasÃŃ": 903,
  "LAS": 39701,
  "Ġsimp": 5826,
  "Anton": 15085,
  "Tran": 20459,
  "Ġprecipitado": 41923,
  "igu": 931,
  "hao": 39842,
  "Ġproporciones": 20528,
  "Ġenjambre": 44882,
  "Ġpaseaban": 49058,
  "Ġsumamente": 16502,
  "Ġaposento": 48081,
  "Ġmuerte": 1681,
  "Ġbarca": 16281,
  "ĠHÃ©roe": 44262,
  "Ġnativos": 14033,
  "Ġaceite": 10552,
  "Ġpliegues": 26372,
  "utÃ³n": 41952,
  "entarias": 19443,
  "uertos": 14535,
  "ĠDevil": 29932,
  "ĠrogÃ³": 35058,
  "ĠmÃ¡quina": 7134,
  "ĠguÃŃa": 10994,
  "Ġexhib": 15642,
  "Ġcaballeros": 9612,
  "ĠCaitlin": 37769,
  "Ġubicaba": 46578,
  "Ġactual": 3160,
  "Ġembro": 47094,
  "Ġsemillas": 13538,
  "Ïģ": 14000,
  "ĠconsolidÃ³": 38606,
  "Ġfemenina": 8818,
  "Ġencorvado": 48608,
  "ĠFÃ¼hrer": 42463,
  "ĠAmaz": 14541,
  "track": 36610,
  "Ġvial": 38956,
  "ĠEstudi": 4147,
  "dri": 4816,
  "ĠEspanyol": 37174,
  "ĠHeaven": 33822,
  "ĠharÃ©": 9981,
  "Ġdesaperci": 26392,
  "ĠFras": 24756,
  "Ġelog": 13008,
  "anga": 35850,
  "Ġadolesc": 7305,
  "ĠWikisource": 43785,
  "fore": 32044,
  "ĠtÃŃmp": 46351,
  "Ġentendido": 12432,
  "Ã³venes": 3789,
  "ĠCamiseta": 41443,
  "Ġanaran": 26222,
  "ĠagarrÃ©": 48682,
  "pongo": 7624,
  "ĠmirÃ¡ndola": 17264,
  "Ġexperim": 3725,
  "wil": 36903,
  "ĠDJ": 18612,
  "Ġclarinete": 39581,
  "Ġgiran": 45592,
  "ĠMÂª": 45705,
  "Ġpertur": 12897,
  "Ġitinerario": 38540,
  "Dire": 15908,
  "ĠFranÃ§ois": 16055,
  "ĠInnovaciÃ³n": 40350,
  "Ġbarrer": 49899,
  "ĠagregÃ³": 17867,
  "Ġconvivencia": 28155,
  "nÃ©s": 39868,
  "Ġdescubren": 26269,
  "Ġobras": 2570,
  "Ġhub": 1395,
  "ĠIÃ±aki": 35659,
  "Ġ1996": 3431,
  "Ġescarla": 33039,
  "Ġdesignada": 32631,
  "Ġvinculadas": 38214,
  "ĠemisiÃ³n": 12177,
  "Ġfracaso": 11000,
  "Ġcompla": 10721,
  "Ġnidos": 33737,
  "Ġverdaderas": 24934,
  "Ġinundaciones": 25462,
  "ĠHayes": 33554,
  "Ġtreinta": 4914,
  "dimos": 13928,
  "Ġembargo": 1303,
  "Ġespi": 6329,
  "Ġsangri": 19270,
  "Ġnues": 1236,
  "ĠGuillermo": 6291,
  "dedores": 30861,
  "diendo": 2254,
  "Ġpelda": 20701,
  "form": 2043,
  "Ġochocientos": 39378,
  "Ġimpa": 8935,
  "gracia": 43058,
  "canÃŃas": 35706,
  "Ġrenovado": 29908,
  "rishna": 44632,
  "Ġexcesiva": 22699,
  "Ġbreve": 5560,
  "ĠRecep": 15426,
  "Ġintensos": 29568,
  "Ġexhal": 20933,
  "Ġeslov": 36021,
  "Ġreclamar": 26287,
  "Ã±oz": 11744,
  "xx": 24216,
  "Florida": 49396,
  "ĠTitanes": 49438,
  "Ġininterrumpida": 50021,
  "ĠDora": 28575,
  "Ġchimeneas": 38710,
  "ĠElec": 7259,
  "ĠAber": 29371,
  "ecaxa": 34710,
  "iewicz": 42437,
  "ĠAE": 34014,
  "Ġsonrisas": 24308,
  "iscal": 13502,
  "Ġlodo": 34019,
  "Ġ(*": 21930,
  "ĠAidan": 30878,
  "deada": 35217,
  "Ġhorizon": 12957,
  "chusetts": 10461,
  "serv": 6543,
  "Ġtoro": 16291,
  "ĠDA": 46712,
  "ulÃ³": 20313,
  "Ġaprobar": 28694,
  "Ġtransport": 28308,
  "tive": 6262,
  "Ġactor": 4295,
  "naeus": 32935,
  "ĠGiulio": 48026,
  "ĠDiamond": 26034,
  "bila": 43871,
  "Mes": 45577,
  "empezÃ³": 23280,
  "Life": 24170,
  "ĠMÃ¡rquez": 18562,
  "Ġhubiesen": 15391,
  "sil": 28093,
  "ĠGante": 40323,
  "Ġdenominado": 9416,
  "Ġgregor": 48912,
  "urita": 42189,
  "Ġbarrido": 45691,
  "Ġacelera": 47799,
  "off": 22730,
  "Ġsangu": 27932,
  "Ġrodeos": 35549,
  "Ġabiertas": 12643,
  "ĠNovak": 49880,
  "Ġalmoh": 12531,
  "Ð¿": 31502,
  "ĠWell": 13171,
  "Anth": 30356,
  "ĠsignificaciÃ³n": 31334,
  "adoc": 39796,
  "conf": 24100,
  "Ġverdad": 1939,
  "Temp": 13381,
  "Catal": 29520,
  "Ġestrato": 45325,
  "ĠcomponÃŃa": 35768,
  "Ġcomponen": 20482,
  "arÃŃa": 1030,
  "Ġencabezado": 27657,
  "Ġlente": 26684,
  "Ġansiosos": 38282,
  "ungen": 35003,
  "Ġfortific": 26607,
  "ĠdiabÃ³": 36244,
  "Ġaluminio": 21175,
  "Ġboce": 32436,
  "ĠAg": 7179,
  "Ġprofundas": 15170,
  "ĠOrange": 23208,
  "Ġoiga": 45126,
  "Ã¡lez": 4957,
  "rash": 22686,
  "Ġconfesado": 38786,
  "olos": 9674,
  "ĠLucre": 28554,
  "Ġamotin": 47502,
  "ame": 2002,
  "ĠBritish": 15994,
  "ct": 11456,
  "phylla": 41430,
  "ĠHorn": 19076,
  "Ġdecepcionado": 32089,
  "ĠBol": 3446,
  "Ġchiquillos": 40287,
  "ĠCorps": 41793,
  "bÃŃa": 16843,
  "Ġcordura": 33329,
  "chate": 47224,
  "sÃŃ": 16724,
  "Ġdesconoci": 4877,
  "Ġdescargas": 28722,
  "Ġespesura": 39413,
  "Ġabund": 6492,
  "Ġnunca": 1499,
  "vre": 14715,
  "Ġhorario": 16538,
  "ĠZola": 42110,
  "Ġcuarteles": 31177,
  "ĠGanadora": 27349,
  "Ġasentimiento": 32581,
  "Ġ~": 35107,
  "ading": 27198,
  "ĠinequÃŃvo": 34640,
  "ĠHuila": 38831,
  "LE": 14074,
  "Ġsolo": 1108,
  "Ġopuso": 23265,
  "ĠplÃ¡sticos": 42518,
  "risis": 5364,
  "Ġgolos": 47927,
  "ĠgÃ¼": 44411,
  "arias": 3457,
  "Web": 42887,
  "ĠMÃ¡r": 12277,
  "Ġpacto": 17563,
  "tate": 12036,
  "Ġcortesana": 49912,
  "Ġpintados": 25746,
  "Ġmodern": 10788,
  "laneda": 26937,
  "ĠprestÃ³": 21659,
  "Ġcolorada": 46089,
  "ecerse": 25233,
  "Ġdiscos": 9334,
  "ĠcorriÃ³": 8878,
  "Ġvuelos": 15146,
  "ĠfÃŃsicos": 17798,
  "eces": 782,
  "Ġaplastada": 47020,
  "ĠNE": 40008,
  "Ġtristemente": 33846,
  "Ġtoman": 17705,
  "ĠKop": 40591,
  "Ġintentado": 10726,
  "Ġexpresamente": 29938,
  "Ġdru": 29841,
  "Ġcasualmente": 37479,
  "ĠReference": 40218,
  "Ġpromovida": 48594,
  "Ġmatr": 16102,
  "ĠEssex": 38398,
  "ĠDesper": 46954,
  "ĠextraÃ±Ã³": 37365,
  "illas": 2730,
  "Ġpudiesen": 31246,
  "Ġatin": 49676,
  "Ġhimno": 19329,
  "Ġoscuro": 5145,
  "ock": 3870,
  "diatamente": 4806,
  "Ġproporcionar": 14370,
  "Ġsostienen": 25805,
  "Mo": 6701,
  "Ġ291": 42520,
  "ulon": 42877,
  "Ġperjudicar": 37641,
  "Ġanduvo": 44096,
  "Ġderru": 11072,
  "Ġmemb": 14467,
  "iblio": 2058,
  "hana": 39931,
  "Ġinoport": 41413,
  "raban": 11038,
  "ĠCompeticiÃ³n": 15580,
  "Ġnaufragio": 36249,
  "Ġpone": 6493,
  "Masculino": 49327,
  "ardÃŃn": 31991,
  "Ġexcur": 18764,
  "È": 142,
  "ML": 30464,
  "ĠJour": 36808,
  "Ġdiscapacidad": 29347,
  "icial": 11323,
  "mino": 26786,
  "ĠLine": 19909,
  "Ġzapatillas": 25385,
  "ĠTruth": 42331,
  "ĠsofÃ¡": 8954,
  "Ġcaf": 24744,
  ",.": 48798,
  "Ġretroceder": 18845,
  "tino": 4491,
  "Ġ+": 3145,
  "Ġconquistas": 30110,
  "Ġinstitu": 3859,
  "tillos": 13147,
  "Ġrenuncia": 13881,
  "ĠeclesiÃ¡sticos": 31492,
  "ĠAsunciÃ³n": 12952,
  "ĠArizona": 15915,
  "âĢĶâĢĶ": 25433,
  "Ġpredicciones": 40398,
  "Ġmie": 1385,
  "Ġllevar": 3296,
  "Ġamenazadora": 46559,
  "IDA": 27496,
  "Ġjunta": 15045,
  "ĠBernardo": 11768,
  "Ġcerros": 27332,
  "Ġmenester": 28616,
  "Ġdefinidas": 35635,
  "Ġcabildo": 30178,
  "viera": 2619,
  "Ġevacuar": 46591,
  "Ġsignificativos": 28570,
  "rismo": 6431,
  "Ġolvidados": 42829,
  "Ġrebo": 10953,
  "Ġzonas": 4828,
  "Ġcustodia": 20717,
  "Ġsheriff": 22968,
  "ĠcapitulaciÃ³n": 45277,
  "ĠubicaciÃ³n": 10993,
  "vete": 37643,
  "Ġaventur": 19296,
  "queros": 8666,
  "vala": 47385,
  "grario": 46522,
  "Mus": 11319,
  "ĠEdiciÃ³n": 12680,
  "itaciÃ³n": 2191,
  "ĠGuadarrama": 46950,
  "ĠkilÃ³metros": 4466,
  "Ġmasaje": 28327,
  "ĠRex": 29543,
  "Ġvarias": 2279,
  "cademia": 15769,
  "Ġnumeros": 3479,
  "ĠPÃŃo": 15795,
  "ĠhuyÃ³": 20473,
  "Ġadecuados": 29780,
  "ĠcomprendÃŃa": 14060,
  "Ġpronunciada": 37021,
  "ĠSpider": 15012,
  "Ġtransmite": 24784,
  "inson": 25287,
  "ĠMotoci": 33024,
  "Ġfacciones": 14782,
  "ĠModern": 20860,
  "Ġphy": 46073,
  "ĠTÃŃtulos": 15763,
  "ĠTrain": 32854,
  "nosa": 38824,
  "quila": 7514,
  "ĠmÃ¡n": 26845,
  "moslo": 31073,
  "Ġlee": 18307,
  "Ġpaleon": 31927,
  "Ġemanaba": 41924,
  "Ġluch": 9352,
  "Bajo": 23325,
  "ĠperiÃ³dicas": 45187,
  "Ġavec": 40632,
  "SonriÃ³": 22460,
  "Ġaugu": 31950,
  "ĠKimber": 42743,
  "ĠAdrian": 23479,
  "ĠJennings": 49435,
  "Ġsorbo": 18744,
  "Ã¡rtelo": 27829,
  "Ġanterior": 2449,
  "Ġperteneci": 4449,
  "adero": 48626,
  "Ġgolpeando": 25116,
  "Ġconvencidos": 32841,
  "Ġcooper": 27456,
  "Ġoscuros": 11185,
  "ĠJamÃ¡s": 15835,
  "ĠEddie": 14614,
  "ĠresolviÃ³": 26353,
  "Ġestrangular": 45404,
  "Ġlibres": 8566,
  "ĠSide": 24817,
  "Ġdej": 880,
  "Ġesper": 1300,
  "ĠpensÃ³": 3536,
[...]
